{
  "0": "<EOT>",
  "1": " ",
  "2": "ر",
  "3": "ح",
  "4": "م",
  "5": "ا",
  "6": "ن",
  "7": "ک",
  "8": "ے",
  "9": "ب",
  "10": "و",
  "11": "س",
  "12": "پ",
  "13": "ی",
  "14": "خ",
  "15": "د",
  "16": "گ",
  "17": "ھ",
  "18": "چ",
  "19": "ڑ",
  "20": "آ",
  "21": "ئ",
  "22": "۔",
  "23": "<EOS>",
  "24": "ج",
  "25": "ت",
  "26": "ف",
  "27": "ل",
  "28": "ں",
  "29": "ٹ",
  "30": "ع",
  "31": "ہ",
  "32": "ڈ",
  "33": "غ",
  "34": "ص",
  "35": "ش",
  "36": "ذ",
  "37": "ز",
  "38": "ؤ",
  "39": "<EOP>",
  "40": "،",
  "41": "ظ",
  "42": "ض",
  "43": "ط",
  "44": "ق",
  "45": "“",
  "46": ":",
  "47": "”",
  "48": "؟",
  "49": "!",
  "50": "‘",
  "51": "ث",
  "52": ".",
  "53": "(",
  "54": ")",
  "55": "1",
  "56": "4",
  "57": "ء",
  "58": "ژ",
  "59": "’",
  "60": "5",
  "61": "A",
  "62": "+",
  "63": "0",
  "64": "ٴ",
  "65": "2",
  "66": "3",
  "67": "6",
  "68": "9",
  "69": "أ",
  "70": "7",
  "71": "G",
  "72": "r",
  "73": "a",
  "74": "s",
  "75": "R",
  "76": "o",
  "77": "t",
  "78": "L",
  "79": "e",
  "80": "d",
  "81": "l",
  "82": "b",
  "83": "F",
  "84": "y",
  "85": "c",
  "86": "i",
  "87": "p",
  "88": "E",
  "89": "n",
  "90": "z",
  "91": "m",
  "92": "B",
  "93": "W",
  "94": "v",
  "95": "N",
  "96": "w",
  "97": "T",
  "98": "S",
  "99": "h",
  "100": "P",
  "101": "H",
  "102": "D",
  "103": "M",
  "104": "u",
  "105": "g",
  "106": "I",
  "107": "x",
  "108": ",",
  "109": "O",
  "110": "8",
  "111": "C",
  "112": "V",
  "113": "k",
  "114": "f",
  "115": "ے ",
  "116": " ک",
  "117": "ی ",
  "118": "ر ",
  "119": "ا ",
  "120": "۔ ",
  "121": "ں ",
  "122": "ہ ",
  "123": "نے ",
  "124": "و ",
  "125": "یں ",
  "126": "ان",
  "127": "اس",
  "128": "تھ",
  "129": "سے ",
  "130": " م",
  "131": "ا۔ ",
  "132": " کے ",
  "133": "ور ",
  "134": "یک",
  "135": " ا",
  "136": "  ",
  "137": " ب",
  "138": "ہو",
  "139": " کی ",
  "140": "ے۔ ",
  "141": "ال",
  "142": "ار",
  "143": "اور ",
  "144": " کر ",
  "145": "ت ",
  "146": "یں",
  "147": "میں ",
  "148": "بھ",
  "149": "ئے ",
  "150": "م ",
  "151": "چھ",
  "152": "یا ",
  "153": " کو ",
  "154": "وں ",
  "155": "ب ",
  "156": "اس ",
  "157": "وہ ",
  "158": " کر",
  "159": "رہ",
  "160": "تے ",
  "161": "یا",
  "162": " میں ",
  "163": "تو ",
  "164": " د",
  "165": "ہا",
  "166": "ی۔ ",
  "167": "ے ک",
  "168": " پ",
  "169": " کا ",
  "170": "ائ",
  "171": "نے ک",
  "172": "اپ",
  "173": "نہ",
  "174": "تا ",
  "175": "ام",
  "176": "ور",
  "177": "وں",
  "178": " “",
  "179": " ہ",
  "180": " ج",
  "181": "با",
  "182": " گ",
  "183": "یر",
  "184": "یا۔ ",
  "185": "ایک",
  "186": "یہ ",
  "187": "ول",
  "188": "تھا۔ ",
  "189": "بھی ",
  "190": " س",
  "191": "ین",
  "192": " کہ ",
  "193": "ون",
  "194": "کھ",
  "195": "رو",
  "196": "جھ",
  "197": " ”",
  "198": "اد",
  "199": " ل",
  "200": "ٹھ",
  "201": "یں۔ ",
  "202": "ئی ",
  "203": "ھر ",
  "204": "پر ",
  "205": "ند",
  "206": "نہیں ",
  "207": " “ ",
  "208": "ہے۔ ",
  "209": " کھ",
  "210": "لگ",
  "211": "یکھ",
  "212": " اس",
  "213": "را",
  "214": "تی ",
  "215": " سے ",
  "216": "خو",
  "217": " آ",
  "218": "بی",
  "219": "! ",
  "220": "ہو ",
  "221": "ری",
  "222": "ے،",
  "223": "تم",
  "224": "وس",
  "225": "نا ",
  "226": "نی ",
  "227": "جا",
  "228": "لا",
  "229": "ہی ",
  "230": "لے ",
  "231": "ار ",
  "232": "بہ",
  "233": ":”",
  "234": "ی ک",
  "235": " وہ ",
  "236": "دیکھ",
  "237": " بھ",
  "238": "..",
  "239": "لئے ",
  "240": "طر",
  "241": "ا،",
  "242": " اس ",
  "243": "دی",
  "244": " چ",
  "245": "سا",
  "246": "وال",
  "247": "نہ ",
  "248": " ان",
  "249": "ہ ک",
  "250": "لو",
  "251": "تھے۔ ",
  "252": "مجھ",
  "253": "جان",
  "254": " نے ",
  "255": "اہ",
  "256": "اپنے ",
  "257": "اب",
  "258": "لی",
  "259": "ڑھ",
  "260": "نے لگ",
  "261": "گر ",
  "262": "اح",
  "263": "رہا ",
  "264": "ارے ",
  "265": "تھی۔ ",
  "266": "از",
  "267": "بچ",
  "268": " ایک",
  "269": " کو",
  "270": "ہوئے ",
  "271": "پی",
  "272": "نگ",
  "273": "لی ",
  "274": "اسے ",
  "275": "نا",
  "276": "ہاں ",
  "277": "سی ",
  "278": "ل ",
  "279": "ہے ",
  "280": " اور ",
  "281": "پہ",
  "282": "ات",
  "283": "وٹ",
  "284": "ہیں ",
  "285": "ڑی ",
  "286": "سک",
  "287": "وق",
  "288": "ہو گ",
  "289": "آپ",
  "290": "عد",
  "291": "اری ",
  "292": "گھ",
  "293": "ا کہ ",
  "294": "می",
  "295": " ت",
  "296": "بہت ",
  "297": "ساتھ",
  "298": "ہیں۔ ",
  "299": "میر",
  "300": "جو",
  "301": "رکھ",
  "302": "ا اور ",
  "303": " ہو",
  "304": "ی سے ",
  "305": " ش",
  "306": "ہر ",
  "307": "ی،",
  "308": "ما",
  "309": "دھ",
  "310": " پر ",
  "311": "یکن",
  "312": "مل",
  "313": "نک",
  "314": "ری ",
  "315": "ائی ",
  "316": "گھر ",
  "317": "رے ",
  "318": "اک",
  "319": "اپنی ",
  "320": "سو",
  "321": "اس کے ",
  "322": "دوس",
  "323": "رہے ",
  "324": "تے ہوئے ",
  "325": "بول",
  "326": " ہو ",
  "327": "نے کے ",
  "328": " بھی ",
  "329": "وں کے ",
  "330": "مع",
  "331": "خوش",
  "332": "مد",
  "333": " کی",
  "334": " کیا ",
  "335": "وں کو ",
  "336": "سن",
  "337": " کچھ",
  "338": "ئے۔ ",
  "339": "یر ",
  "340": "اؤ",
  "341": "انی ",
  "342": " کہ",
  "343": "دن",
  "344": "ید",
  "345": "وں نے ",
  "346": "؟“",
  "347": "ہم",
  "348": "شک",
  "349": "اف",
  "350": "ہوں",
  "351": "تم ",
  "352": "یں،",
  "353": "ئی۔ ",
  "354": "یل",
  "355": "پھ",
  "356": "طرف",
  "357": "وڑ",
  "358": "وں کی ",
  "359": "یاں ",
  "360": "در",
  "361": "ام ",
  "362": " ن",
  "363": "ی کے ",
  "364": "صاح",
  "365": "ہے،",
  "366": "اس کی ",
  "367": "بعد",
  "368": "ا تو ",
  "369": "جو ",
  "370": "اب ",
  "371": "ست",
  "372": "پر",
  "373": " ع",
  "374": "وں سے ",
  "375": " یہ ",
  "376": "یا اور ",
  "377": "ہا:”",
  "378": "کہ ",
  "379": "رہی ",
  "380": " اس نے ",
  "381": "گر",
  "382": "یس",
  "383": "لہ ",
  "384": " اپ",
  "385": "می ",
  "386": " کر د",
  "387": "ی کی ",
  "388": "پو",
  "389": "نچ",
  "390": "ڑے ",
  "391": "ہاتھ",
  "392": "یز",
  "393": "سان",
  "394": "وں میں ",
  "395": "یاد",
  "396": "اس نے ",
  "397": "سب",
  "398": " تھ",
  "399": "تک",
  "400": "گا۔ ",
  "401": "مح",
  "402": "مان",
  "403": "طرح",
  "404": "چاہ",
  "405": "لا ",
  "406": "ڑا ",
  "407": "ے کہ ",
  "408": "بر",
  "409": "سے ک",
  "410": "تمہ",
  "411": "خت",
  "412": "شا",
  "413": "بت",
  "414": "وش",
  "415": "نظ",
  "416": "بات ",
  "417": "بے ",
  "418": " دن",
  "419": "مجھے ",
  "420": "بیٹ",
  "421": "بیٹھ",
  "422": "یسے ",
  "423": "تھا،",
  "424": "پھر ",
  "425": "ہوا ",
  "426": " و",
  "427": " ف",
  "428": "اق",
  "429": "اور",
  "430": " میر",
  "431": " ہی ",
  "432": "کا ",
  "433": "پوچھ",
  "434": "لوگ",
  "435": "کے ",
  "436": "یں گ",
  "437": " کوئی ",
  "438": "یں ک",
  "439": "چھوٹ",
  "440": "بات",
  "441": "دل",
  "442": " ہو گ",
  "443": "ہوں ",
  "444": "سمجھ",
  "445": "تو",
  "446": "سب ",
  "447": "انھ",
  "448": "نے کی ",
  "449": "لیکن",
  "450": "پاس ",
  "451": "سوچ",
  "452": "را ",
  "453": " گیا۔ ",
  "454": " بچ",
  "455": "ی اور ",
  "456": "اند",
  "457": "ارا ",
  "458": "ان کے ",
  "459": " مجھ",
  "460": "تھا کہ ",
  "461": " خ",
  "462": " بہ",
  "463": " نہیں ",
  "464": "آن",
  "465": "ے کے ",
  "466": "ا ک",
  "467": "نگل",
  "468": "دو",
  "469": "اچھ",
  "470": "مر",
  "471": "جہ ",
  "472": "تا ہے۔ ",
  "473": "ائے ",
  "474": "من",
  "475": "ے اور ",
  "476": "ا:”",
  "477": "جا ",
  "478": "واز",
  "479": "سل",
  "480": "ائی",
  "481": "پہنچ",
  "482": "اص",
  "483": "تے ہیں۔ ",
  "484": "نہیں",
  "485": "رہا تھا۔ ",
  "486": "یا کہ ",
  "487": "انا ",
  "488": " اب ",
  "489": "ے کی ",
  "490": " ر",
  "491": "نے وال",
  "492": "انک",
  "493": "بل",
  "494": "ایک ",
  "495": "ہم ",
  "496": "....",
  "497": "یا تھا۔ ",
  "498": "بہت",
  "499": "جس",
  "500": "نظر ",
  "501": "نے کا ",
  "502": "ی کا ",
  "503": "ہوں۔ ",
  "504": "دے ",
  "505": "ہے",
  "506": "گز",
  "507": "ان کی ",
  "508": "ا کر ",
  "509": "اش",
  "510": " جب ",
  "511": "بح",
  "512": "وک",
  "513": "پک",
  "514": "ت سے ",
  "515": "پڑ",
  "516": " ی",
  "517": "یم",
  "518": "نے کے لئے ",
  "519": "مال",
  "520": "یا،",
  "521": "ی کو ",
  "522": "تع",
  "523": " پھر ",
  "524": "لد",
  "525": " لیکن",
  "526": " مجھے ",
  "527": "تا۔ ",
  "528": "وقت ",
  "529": "وجو",
  "530": "ر کے ",
  "531": " اس کے ",
  "532": " اسے ",
  "533": "صاحب",
  "534": "اپس",
  "535": "ے کو ",
  "536": "روز",
  "537": "ے سے ",
  "538": "مز",
  "539": "اٹھ",
  "540": "اگ",
  "541": "اؤں ",
  "542": "دیکھ کر ",
  "543": "ے کر ",
  "544": "آواز",
  "545": "رف",
  "546": "فر",
  "547": "شان",
  "548": "چل",
  "549": "ضر",
  "550": "اس کا ",
  "551": " کھا",
  "552": " بی",
  "553": "؟“ ",
  "554": "تا تھا۔ ",
  "555": "خود",
  "556": "تے تھے۔ ",
  "557": "وئی ",
  "558": "سام",
  "559": "گیا۔ ",
  "560": "کول",
  "561": "لہ",
  "562": "ی کہ ",
  "563": "باد",
  "564": "امی ",
  "565": "ونوں ",
  "566": " اپنے ",
  "567": "جب ",
  "568": "ای",
  "569": "باہر ",
  "570": "مگر ",
  "571": "روع",
  "572": "میرے ",
  "573": "بند",
  "574": "نکل",
  "575": "زیاد",
  "576": "بو",
  "577": "والد",
  "578": "کہ",
  "579": "کی ",
  "580": "وں کا ",
  "581": "صبح",
  "582": "پڑھ",
  "583": "حال",
  "584": "واپس",
  "585": " دوس",
  "586": "نے میں ",
  "587": "شہ",
  "588": " انھ",
  "589": " دیکھ",
  "590": "سر",
  "591": "بار",
  "592": "حیر",
  "593": "ہوئی ",
  "594": "ا د",
  "595": "بن",
  "596": " پہ",
  "597": "زم",
  "598": "جنگل",
  "599": "میری ",
  "600": "قری",
  "601": "چو",
  "602": "صاحب ",
  "603": "اپنا ",
  "604": " کے لئے ",
  "605": "پہلے ",
  "606": "دا",
  "607": "آج",
  "608": "تھا ",
  "609": "پری",
  "610": "جی",
  "611": "اڑ",
  "612": "ٹی ",
  "613": "گی ",
  "614": "وجہ ",
  "615": "مک",
  "616": "ہے کہ ",
  "617": " جا",
  "618": "آنکھ",
  "619": "جائے ",
  "620": " آپ",
  "621": "زیادہ ",
  "622": "وجود",
  "623": "سر ",
  "624": " کر کے ",
  "625": " مگر ",
  "626": "دیر ",
  "627": " اب",
  "628": "دو ",
  "629": "رک",
  "630": "نکال",
  "631": " اس کی ",
  "632": "جائ",
  "633": "نے کہا:”",
  "634": "بال",
  "635": "ادی ",
  "636": "تھیں۔ ",
  "637": "آگ",
  "638": "ڈال",
  "639": "ہر",
  "640": "ہیں،",
  "641": "وری ",
  "642": "چڑ",
  "643": "شروع",
  "644": "جب",
  "645": "ے میں ",
  "646": " کسی ",
  "647": " لو",
  "648": "ت میں ",
  "649": " کے ساتھ",
  "650": "جگ",
  "651": "یچ",
  "652": "شاہ ",
  "653": "عل",
  "654": " کی طرف",
  "655": "چھوڑ",
  "656": "جلد",
  "657": "آ گ",
  "658": "ورت ",
  "659": "ونکہ ",
  "660": "نے کہ",
  "661": "بان",
  "662": "بتا",
  "663": "دوست",
  "664": "وہاں ",
  "665": "رہے تھے۔ ",
  "666": " نہ ",
  "667": "انہ ",
  "668": "گھر",
  "669": "یا تو ",
  "670": "نے سے ",
  "671": "انت",
  "672": "ڑک",
  "673": " تو ",
  "674": "نے لگا۔ ",
  "675": " ال",
  "676": "یں گے۔ ",
  "677": "ہے اور ",
  "678": "انگ",
  "679": "وں پر ",
  "680": "سن کر ",
  "681": "چانک",
  "682": "بی ",
  "683": " اح",
  "684": "یال",
  "685": " کرنا ",
  "686": "تمہیں ",
  "687": "بد",
  "688": "دار ",
  "689": "خص",
  "690": "ابو ",
  "691": "مار",
  "692": "ورا ",
  "693": "ے کا ",
  "694": " رکھ",
  "695": " ایک دن",
  "696": "مت",
  "697": "فی",
  "698": " لگ",
  "699": "رہ ",
  "700": "انھیں ",
  "701": " رہا ",
  "702": "ایک ب",
  "703": " ات",
  "704": "یسا ",
  "705": "ہیں",
  "706": " ح",
  "707": "پریشان",
  "708": "نس",
  "709": " کرتا ",
  "710": "رواز",
  "711": "پانی ",
  "712": "بار ",
  "713": "آئ",
  "714": "ڈھ",
  "715": "سی",
  "716": "ٹھیک",
  "717": " رہی ",
  "718": "ٹر ",
  "719": "خت ",
  "720": " تھا۔ ",
  "721": " دی",
  "722": "یہ ک",
  "723": "بڑھ",
  "724": "ا تھا۔ ",
  "725": "تی ہے۔ ",
  "726": "تھے،",
  "727": "چیز",
  "728": "وقت",
  "729": "شر",
  "730": " سو",
  "731": " کرتے ",
  "732": "رگ",
  "733": "نو",
  "734": "بر ",
  "735": "م نے ",
  "736": "رات",
  "737": " کرو",
  "738": "بچے ",
  "739": "اسکول",
  "740": " بہت ",
  "741": " کر ل",
  "742": "مر ",
  "743": "مند",
  "744": "غل",
  "745": " اچھ",
  "746": "وہ ک",
  "747": "کی",
  "748": "لے کر ",
  "749": "وجہ سے ",
  "750": "زمین",
  "751": "خوب",
  "752": "مدد",
  "753": "ہو۔ ",
  "754": "خیال",
  "755": "یار ",
  "756": "دونوں ",
  "757": "افی ",
  "758": "تھی،",
  "759": "قص",
  "760": "میں",
  "761": "پرند",
  "762": " مل",
  "763": " اٹھ",
  "764": "“۔ ",
  "765": "یں اور ",
  "766": "اہ ",
  "767": "انسان",
  "768": "اور ک",
  "769": "بڑی ",
  "770": "کان",
  "771": "طو",
  "772": "میں نے ",
  "773": "بس",
  "774": "کر",
  "775": " میں نے ",
  "776": "تہ ",
  "777": " میرے ",
  "778": "پن",
  "779": "ات ",
  "780": "نے لگے۔ ",
  "781": "زند",
  "782": "تے۔ ",
  "783": "او",
  "784": "ہی",
  "785": "ہاں",
  "786": "آئے ",
  "787": "سو ",
  "788": "خر ",
  "789": "لف",
  "790": "ٹک",
  "791": "ا! ",
  "792": " سک",
  "793": "تین",
  "794": "اللہ ",
  "795": "قد",
  "796": "مرے ",
  "797": "تھا اور ",
  "798": " کا",
  "799": "الی ",
  "800": "گی۔ ",
  "801": "آد",
  "802": "تی",
  "803": " جس",
  "804": " انھوں نے ",
  "805": " آج",
  "806": "نے کے بعد",
  "807": "تمہارے ",
  "808": "سامنے ",
  "809": " احمد",
  "810": " کام",
  "811": "اس سے ",
  "812": "چاہی",
  "813": "پیچھ",
  "814": "جن",
  "815": "رق",
  "816": "ا جان",
  "817": " اگر ",
  "818": "غص",
  "819": "گئے ",
  "820": "ے تو ",
  "821": "موجود",
  "822": "جی ",
  "823": "گھر میں ",
  "824": "درخت",
  "825": "روپ",
  "826": "زاد",
  "827": " گئی۔ ",
  "828": "چھوٹے ",
  "829": " جو ",
  "830": "سال",
  "831": "صرف",
  "832": "اس ب",
  "833": "منہ ",
  "834": "بھی ک",
  "835": "چی",
  "836": "لاش",
  "837": "اسی ",
  "838": "صل",
  "839": "غلط",
  "840": "سا ",
  "841": "بڑے ",
  "842": " کی ک",
  "843": "یا ہے۔ ",
  "844": "بھاگ",
  "845": "جگہ ",
  "846": "ماں ",
  "847": " کیا۔ ",
  "848": " کر سک",
  "849": "یق",
  "850": "نیچ",
  "851": "معلو",
  "852": " ہے۔ ",
  "853": "مسک",
  "854": "دیا۔ ",
  "855": " رہ",
  "856": "دور ",
  "857": "میرا ",
  "858": "شیر",
  "859": " مح",
  "860": " اپنی ",
  "861": " بن",
  "862": "تے ہی ",
  "863": "تو وہ ",
  "864": "حیران",
  "865": "دور",
  "866": " پھ",
  "867": "بھائی ",
  "868": " باد",
  "869": "رح",
  "870": "فت",
  "871": "تمہاری ",
  "872": " جب",
  "873": "اں ",
  "874": "چلا ",
  "875": "جواب ",
  "876": "ان سے ",
  "877": " پر",
  "878": " گئے۔ ",
  "879": "میں ک",
  "880": "طوط",
  "881": "سند",
  "882": "دہ ",
  "883": "سائ",
  "884": "وں گا۔ ",
  "885": "پان",
  "886": "و نے ",
  "887": "بہ ",
  "888": "چا",
  "889": " گھ",
  "890": " اسی ",
  "891": "آیا۔ ",
  "892": "صح",
  "893": "بنا",
  "894": " کیوں ",
  "895": "دکھ",
  "896": "ہمارے ",
  "897": "ادھر ",
  "898": "تے ہیں ",
  "899": "رنگ",
  "900": "یہاں ",
  "901": " کھول",
  "902": "تھی ",
  "903": "شہ ",
  "904": "جیسے ",
  "905": " کس",
  "906": "جاؤ",
  "907": "اندر ",
  "908": "درواز",
  "909": "بولا:”",
  "910": "آگے ",
  "911": "گا",
  "912": " میں",
  "913": " لوگ",
  "914": "سوس",
  "915": "ہوں نے ",
  "916": "ہمیں ",
  "917": " ق",
  "918": "روش",
  "919": "یاں",
  "920": "ان کو ",
  "921": "نے پر ",
  "922": "انھوں نے ",
  "923": "ان کا ",
  "924": "لکھ",
  "925": "داخ",
  "926": "ی! ",
  "927": "مو",
  "928": "اگر ",
  "929": "نام ",
  "930": "خوبص",
  "931": " پہنچ",
  "932": "تا ہے ",
  "933": " ایک ",
  "934": "تھی کہ ",
  "935": "وشش",
  "936": "پوچھا۔ ",
  "937": " سب",
  "938": "زور ",
  "939": "تلاش",
  "940": "وڑی ",
  "941": "قریب ",
  "942": " بڑھ",
  "943": "ہد",
  "944": "ستہ ",
  "945": "تمام ",
  "946": "خوشی ",
  "947": " سن",
  "948": "گئے۔ ",
  "949": "زین",
  "950": ".....",
  "951": "ڈر",
  "952": "نھ",
  "953": " ہم",
  "954": "دی ",
  "955": " ای",
  "956": "صی",
  "957": "شخص",
  "958": "پکڑ",
  "959": "مالک",
  "960": " کھیل",
  "961": " تھے۔ ",
  "962": " اس لئے ",
  "963": "اج",
  "964": "تیز",
  "965": "ے پر ",
  "966": " سب ",
  "967": "ی کر",
  "968": "یہ",
  "969": "اؤں",
  "970": "اط",
  "971": "و! ",
  "972": " میری ",
  "973": "چھپ",
  "974": "ئیں۔ ",
  "975": "داد",
  "976": "قل",
  "977": "مرے میں ",
  "978": " رہا تھا۔ ",
  "979": "فورا ",
  "980": " کے پاس ",
  "981": "یا کر",
  "982": " چل",
  "983": "ہوں،",
  "984": "یوں ",
  "985": "ورت",
  "986": "نڈ",
  "987": "کر ",
  "988": "ا ل",
  "989": " در",
  "990": " ہم ",
  "991": "اکہ ",
  "992": "تح",
  "993": " صبح",
  "994": "ثر ",
  "995": "مسکرا",
  "996": "ہو گیا۔ ",
  "997": "پتا ",
  "998": "راس",
  "999": "نے کی ک",
  "1000": "دوسرے ",
  "1001": "در ",
  "1002": "والے ",
  "1003": " امی ",
  "1004": "پسند",
  "1005": "علا",
  "1006": "گا،",
  "1007": " بہت",
  "1008": "ایک م",
  "1009": "ان ",
  "1010": "گاؤں ",
  "1011": "نیچے ",
  "1012": "صاحب نے ",
  "1013": "ا نے ",
  "1014": "ساری ",
  "1015": "تی تھی۔ ",
  "1016": "ٹی",
  "1017": "پاس",
  "1018": "تے ہوئے کہ",
  "1019": "جانور",
  "1020": "ئی اور ",
  "1021": "رہے تھ",
  "1022": " کل",
  "1023": "اس میں ",
  "1024": "ا کر",
  "1025": "کڑ",
  "1026": "قر",
  "1027": "گلے ",
  "1028": " کر دیا۔ ",
  "1029": "ہ کر ",
  "1030": "بادشاہ ",
  "1031": "ی:”",
  "1032": "پیسے ",
  "1033": "ہا کہ ",
  "1034": "یا:”",
  "1035": " بول",
  "1036": " سے ک",
  "1037": "ایا ",
  "1038": "ے نے ",
  "1039": "گئی۔ ",
  "1040": "بھی",
  "1041": "اچھا ",
  "1042": "باز",
  "1043": "احمد",
  "1044": "تن",
  "1045": " نہ",
  "1046": " میں ک",
  "1047": "معلوم ",
  "1048": "مط",
  "1049": "پیچھے ",
  "1050": "ملا",
  "1051": "بہت خوش",
  "1052": "شکل",
  "1053": " ”ک",
  "1054": "تاب",
  "1055": " کے ک",
  "1056": "آپ کو ",
  "1057": "ہستہ ",
  "1058": "تا،",
  "1059": "مش",
  "1060": "ڈاک",
  "1061": "گو",
  "1062": " جو",
  "1063": "جمع",
  "1064": " ۔ ",
  "1065": "نے کہا۔ ",
  "1066": " پی",
  "1067": "لڑ",
  "1068": "جانور ",
  "1069": "مٹھ",
  "1070": "وں کے ساتھ",
  "1071": "نے والے ",
  "1072": " کبھی ",
  "1073": "تی۔ ",
  "1074": "سارے ",
  "1075": "وی ",
  "1076": "اض",
  "1077": "بہن",
  "1078": "ہا ",
  "1079": "ابھی ",
  "1080": " ہے ",
  "1081": " مع",
  "1082": " اچانک",
  "1083": "انتظ",
  "1084": "پڑے ",
  "1085": "تال",
  "1086": "اقع",
  "1087": "است",
  "1088": "جنگل میں ",
  "1089": "اصل",
  "1090": "اس کو ",
  "1091": "اخ",
  "1092": "نے کی کوشش",
  "1093": " چو",
  "1094": "فا",
  "1095": "رید",
  "1096": "ایسا ",
  "1097": "رگوش",
  "1098": "لوم",
  "1099": "جا کر ",
  "1100": "پھول",
  "1101": "ضرور ",
  "1102": " اس کا ",
  "1103": "ر نے ",
  "1104": "ان میں ",
  "1105": "رات ",
  "1106": "یقین",
  "1107": "نے لگی۔ ",
  "1108": "سارا ",
  "1109": "شاہ",
  "1110": " لی",
  "1111": "ت کا ",
  "1112": " پڑ",
  "1113": "ہو،",
  "1114": "ہوا۔ ",
  "1115": "تا رہ",
  "1116": "خال",
  "1117": "ہمی",
  "1118": "تم نے ",
  "1119": " کے بعد",
  "1120": "تا ہے،",
  "1121": "ا ہوا ",
  "1122": " بل",
  "1123": "جر",
  "1124": "میاں ",
  "1125": "ن میں ",
  "1126": "سلام",
  "1127": "ماں",
  "1128": "بک",
  "1129": "بڑا ",
  "1130": "م سے ",
  "1131": " ان کی ",
  "1132": "ئی،",
  "1133": " تم",
  "1134": "مس",
  "1135": "صو",
  "1136": "تر",
  "1137": " مر",
  "1138": "دیکھا تو ",
  "1139": "ابو",
  "1140": "ماع",
  "1141": "اموش",
  "1142": "یت ",
  "1143": "والدین",
  "1144": "اچانک",
  "1145": "چی ",
  "1146": "انداز",
  "1147": "شام",
  "1148": "و گ",
  "1149": " رو",
  "1150": " نہیں",
  "1151": "چلا",
  "1152": "درخت ",
  "1153": "صف",
  "1154": "اں",
  "1155": "ے کھ",
  "1156": "زندگی ",
  "1157": " گئے ",
  "1158": "غیر ",
  "1159": "نے والی ",
  "1160": "باپ",
  "1161": " ان کے ",
  "1162": "ئے،",
  "1163": " کیونکہ ",
  "1164": "ت کی ",
  "1165": " دیر ",
  "1166": "سم",
  "1167": "مار ",
  "1168": " دیا۔ ",
  "1169": "آدمی ",
  "1170": " کیسے ",
  "1171": "نان",
  "1172": "روف",
  "1173": "دوست ",
  "1174": "پور",
  "1175": "نٹ",
  "1176": "آہستہ ",
  "1177": " وہاں ",
  "1178": " سا",
  "1179": "چھوٹی ",
  "1180": "با ",
  "1181": " بادشاہ ",
  "1182": " تک",
  "1183": "مول",
  "1184": "چار",
  "1185": "انہیں ",
  "1186": "ذرا ",
  "1187": " کھانا ",
  "1188": "سپ",
  "1189": "بھائی",
  "1190": "ا ”",
  "1191": "سب سے ",
  "1192": "ے:”",
  "1193": "یں تو ",
  "1194": "چار ",
  "1195": "چا ",
  "1196": " اللہ ",
  "1197": "بیگ",
  "1198": " ہو گیا۔ ",
  "1199": "جماع",
  "1200": "تے ہیں،",
  "1201": "وں اور ",
  "1202": "واپس آ",
  "1203": "ار کر",
  "1204": "تا ہوں۔ ",
  "1205": "ذہ",
  "1206": "صاف",
  "1207": "پھر",
  "1208": "خوف",
  "1209": "گھون",
  "1210": "بچوں کو ",
  "1211": " ٹ",
  "1212": "اچھی ",
  "1213": "دا ",
  "1214": "ہوتی ",
  "1215": "لے میں ",
  "1216": " کم",
  "1217": "تاکہ ",
  "1218": "دین",
  "1219": "خر",
  "1220": "واقع",
  "1221": "احس",
  "1222": " صاحب",
  "1223": "ہار ",
  "1224": "ت کے ",
  "1225": "یکل",
  "1226": "ہو کر ",
  "1227": "یہی ",
  "1228": "نظر آ",
  "1229": " کر دی",
  "1230": " تم ",
  "1231": "بالک",
  "1232": " و ",
  "1233": "نہیں آ",
  "1234": " کھل",
  "1235": "مص",
  "1236": "دی۔ ",
  "1237": "نم",
  "1238": "بلی",
  "1239": "بولا۔ ",
  "1240": " داد",
  "1241": "شہر ",
  "1242": " بے ",
  "1243": "پوچھا:”",
  "1244": "تا اور ",
  "1245": "نہیں،",
  "1246": "نے کو ",
  "1247": "دع",
  "1248": " بو",
  "1249": "ی نے ",
  "1250": " گھر ",
  "1251": "غری",
  "1252": " جنگل",
  "1253": "ہا،",
  "1254": "سف",
  "1255": "تا ہوا ",
  "1256": "اپنے ک",
  "1257": " ساتھ",
  "1258": " بچے ",
  "1259": " یہ ک",
  "1260": "م میں ",
  "1261": "عاد",
  "1262": "رہی تھی۔ ",
  "1263": " کیا اور ",
  "1264": "آ کر ",
  "1265": "ارے میں ",
  "1266": " کی۔ ",
  "1267": "حق",
  "1268": "چلے ",
  "1269": " مز",
  "1270": "دکان",
  "1271": "باتیں ",
  "1272": "اس پر ",
  "1273": "ایا۔ ",
  "1274": "شیر ",
  "1275": "ہنس",
  "1276": "ے! ",
  "1277": " ار",
  "1278": "ہماری ",
  "1279": "چکا ",
  "1280": " ابھی ",
  "1281": "حک",
  "1282": "محن",
  "1283": "ادو",
  "1284": "انٹ",
  "1285": "داخل ",
  "1286": "ا ہے۔ ",
  "1287": "کہا:”",
  "1288": "ہی ک",
  "1289": " آخر ",
  "1290": " بت",
  "1291": "ہ کر",
  "1292": "ہٹ",
  "1293": "چڑیا ",
  "1294": "ہوش",
  "1295": "عمر ",
  "1296": "گا ",
  "1297": "ہان",
  "1298": "وز",
  "1299": "بھر",
  "1300": "نہیں۔ ",
  "1301": "گزر ",
  "1302": "ہل",
  "1303": "گھر کے ",
  "1304": "طور ",
  "1305": " دو ",
  "1306": "مض",
  "1307": "بلی ",
  "1308": "تھے ",
  "1309": "تمہارا ",
  "1310": "چند",
  "1311": "ائی۔ ",
  "1312": "ینک",
  "1313": "تر ",
  "1314": "آئی ",
  "1315": "خوب ",
  "1316": " ہر ",
  "1317": "ی تو ",
  "1318": " سال",
  "1319": " لڑ",
  "1320": "مچھ",
  "1321": "حص",
  "1322": " بیٹھ",
  "1323": " ہے،",
  "1324": "جہاں ",
  "1325": " جائ",
  "1326": " کہا۔ ",
  "1327": "تے ہوئے کہا۔ ",
  "1328": "روپے ",
  "1329": "بنا ",
  "1330": " بس",
  "1331": "جلدی ",
  "1332": "قاب",
  "1333": " بند",
  "1334": "نظر",
  "1335": "ت کر",
  "1336": "خاموش",
  "1337": "نام",
  "1338": " بات",
  "1339": " جیسے ",
  "1340": "ناک",
  "1341": "گڑ",
  "1342": "سون",
  "1343": "چاہیے۔ ",
  "1344": " دو",
  "1345": "پیش",
  "1346": "خرگوش",
  "1347": "علی ",
  "1348": "آگے بڑھ",
  "1349": " سوچ",
  "1350": "ایک ن",
  "1351": "رد",
  "1352": "اغ",
  "1353": "لم",
  "1354": "مانگ",
  "1355": "برا",
  "1356": " دوسرے ",
  "1357": "پڑی ",
  "1358": "وقع",
  "1359": "لڑک",
  "1360": "نا چاہ",
  "1361": "خوبصورت ",
  "1362": "ی تھی۔ ",
  "1363": "بیٹا! ",
  "1364": " کر ک",
  "1365": "اس لئے ",
  "1366": " دونوں ",
  "1367": "تنگ",
  "1368": "ب سے ",
  "1369": "اوپر ",
  "1370": "دون",
  "1371": "یت",
  "1372": "ت پر ",
  "1373": "ؤں ",
  "1374": "دھو",
  "1375": "اتنی ",
  "1376": "دار",
  "1377": " کہہ ",
  "1378": "یہ کہ",
  "1379": " وہ ک",
  "1380": "اتنا ",
  "1381": "دیا ",
  "1382": " لے ",
  "1383": "وڑی دیر ",
  "1384": "زمین پر ",
  "1385": " دون",
  "1386": "اس م",
  "1387": "چہ",
  "1388": "حد",
  "1389": "بارہ ",
  "1390": "سوال",
  "1391": "بائ",
  "1392": "اون",
  "1393": "راز",
  "1394": " جائے ",
  "1395": "مرغ",
  "1396": "تے رہ",
  "1397": "تھے اور ",
  "1398": "غر",
  "1399": "دھا ",
  "1400": " کھا ",
  "1401": " رہے ",
  "1402": "خرید",
  "1403": "یند",
  "1404": "احساس ",
  "1405": "ضرورت ",
  "1406": "مشکل",
  "1407": "تھی اور ",
  "1408": "ہاڑ",
  "1409": "ہو جا",
  "1410": "مہ ",
  "1411": "ام کر",
  "1412": "دوڑ",
  "1413": "ئی ک",
  "1414": "فائ",
  "1415": " کھان",
  "1416": "بط",
  "1417": " اگلے ",
  "1418": "فو",
  "1419": "خاص",
  "1420": "علی",
  "1421": " سمجھ",
  "1422": "بیٹا ",
  "1423": "بچہ ",
  "1424": "فیصل",
  "1425": "نقص",
  "1426": "مین",
  "1427": "چڑھ",
  "1428": "مت ",
  "1429": "ننھ",
  "1430": "وں کے لئے ",
  "1431": "گئی ",
  "1432": "ٹا ",
  "1433": "گزر",
  "1434": "بولی:”",
  "1435": "دوسر",
  "1436": "اللہ",
  "1437": " ہو کر ",
  "1438": "بارے میں ",
  "1439": "بھول",
  "1440": " کھڑا ",
  "1441": "لق",
  "1442": "دیکھا ",
  "1443": "ہو سک",
  "1444": "تعلی",
  "1445": "ہمیشہ ",
  "1446": "تے میں ",
  "1447": "ر میں ",
  "1448": "چپ",
  "1449": "گھر سے ",
  "1450": "ادی جان",
  "1451": "چلی ",
  "1452": "فار",
  "1453": "وعد",
  "1454": "عز",
  "1455": " گئی ",
  "1456": " اک",
  "1457": " چی",
  "1458": "بلکہ ",
  "1459": "اسے ک",
  "1460": "سنا",
  "1461": "ہو گئی ",
  "1462": " مان",
  "1463": " میرا ",
  "1464": "باق",
  "1465": "آس",
  "1466": "تیار ",
  "1467": " تھی۔ ",
  "1468": "فون",
  "1469": "گیا ",
  "1470": "محسوس",
  "1471": "مام",
  "1472": "ونڈ",
  "1473": "گن",
  "1474": "پہ ",
  "1475": "فیص",
  "1476": "حاصل",
  "1477": "زار ",
  "1478": " مار",
  "1479": " اد",
  "1480": "شن",
  "1481": "چون",
  "1482": "بیٹھے ",
  "1483": "ان نے ",
  "1484": "دیکھا کہ ",
  "1485": "رہا تھا کہ ",
  "1486": "ہوا کہ ",
  "1487": " دھ",
  "1488": "و،",
  "1489": "چھوٹا ",
  "1490": "ہے؟",
  "1491": "پاک",
  "1492": " کت",
  "1493": "وی",
  "1494": "شرار",
  "1495": "طاق",
  "1496": "پیٹ",
  "1497": "ور سے ",
  "1498": "دوسری ",
  "1499": "تے ہیں",
  "1500": "بڑ",
  "1501": "ہیں اور ",
  "1502": "شکر",
  "1503": " شیر ",
  "1504": "چلا گیا۔ ",
  "1505": " دوسر",
  "1506": "شاید",
  "1507": "سائیکل",
  "1508": "علم ",
  "1509": "دنیا ",
  "1510": " کچھ دیر ",
  "1511": "رس",
  "1512": "ئے اور ",
  "1513": "آیا ",
  "1514": "خوشی سے ",
  "1515": "جائے۔ ",
  "1516": "چین",
  "1517": "وار",
  "1518": "جلدی سے ",
  "1519": "جل",
  "1520": " آد",
  "1521": " انھیں ",
  "1522": "چکی ",
  "1523": "ہار",
  "1524": " مند",
  "1525": "رہا ہے۔ ",
  "1526": "یرا ",
  "1527": " جب وہ ",
  "1528": "ملک",
  "1529": " جان",
  "1530": " رہی تھی۔ ",
  "1531": "بھر ",
  "1532": "نر",
  "1533": "بتایا کہ ",
  "1534": "کیا ",
  "1535": "نہیں ہو",
  "1536": "گاؤں",
  "1537": " رہے تھے۔ ",
  "1538": "وہی ",
  "1539": "انڈ",
  "1540": "برا ",
  "1541": "دودھ",
  "1542": "ہاتھ میں ",
  "1543": "و۔ ",
  "1544": " پہلے ",
  "1545": "زادی ",
  "1546": "...",
  "1547": " جھ",
  "1548": " اس طرح",
  "1549": "ظر ",
  "1550": "بارش",
  "1551": "گھونس",
  "1552": "تی ہیں۔ ",
  "1553": "ہے؟“",
  "1554": "سے کہا:”",
  "1555": "نا شروع",
  "1556": "ہو گا۔ ",
  "1557": "وف",
  "1558": "تی رہ",
  "1559": "آخر ",
  "1560": " اس سے ",
  "1561": "شکریہ ",
  "1562": "پھل",
  "1563": "سکول",
  "1564": "پوری ",
  "1565": "مکھ",
  "1566": "بھوک",
  "1567": "لیٹ",
  "1568": "قیم",
  "1569": "زخ",
  "1570": " بوڑھ",
  "1571": "ہو گئے۔ ",
  "1572": "رقم ",
  "1573": " ”میں ",
  "1574": "ڈھونڈ",
  "1575": "آپ کے ",
  "1576": "چڑیا",
  "1577": "آپ کی ",
  "1578": " چھ",
  "1579": "کیونکہ ",
  "1580": "ختلف",
  "1581": "تے،",
  "1582": "اری",
  "1583": "گوش",
  "1584": "آ گیا۔ ",
  "1585": " کام ",
  "1586": "دوران",
  "1587": "م کی ",
  "1588": " انہوں نے ",
  "1589": " اش",
  "1590": "ر کو ",
  "1591": "گیا اور ",
  "1592": "نارے ",
  "1593": "تیزی سے ",
  "1594": "رار ",
  "1595": "دیکھا۔ ",
  "1596": " بعد",
  "1597": "بھو",
  "1598": "لو ",
  "1599": " ایک ب",
  "1600": "ائیں ",
  "1601": "دل میں ",
  "1602": " اسکول",
  "1603": "لگا",
  "1604": "ریف",
  "1605": "ی میں ",
  "1606": "تب",
  "1607": "بندر ",
  "1608": " کسان",
  "1609": " لیا۔ ",
  "1610": "نقصان",
  "1611": "ر کی ",
  "1612": " جہاں ",
  "1613": "زرگ",
  "1614": "ڈاکٹر ",
  "1615": "تے اور ",
  "1616": "گزار",
  "1617": "مزہ ",
  "1618": "بوڑھ",
  "1619": "موس",
  "1620": "ایک ش",
  "1621": "ہلا",
  "1622": "ختم ",
  "1623": "م کے ",
  "1624": "فق",
  "1625": "ریچھ",
  "1626": "وہاں سے ",
  "1627": "بلا",
  "1628": "ینا ",
  "1629": "طال",
  "1630": "مدد کر",
  "1631": "س میں ",
  "1632": "رات کو ",
  "1633": "نا۔ ",
  "1634": "چور",
  "1635": "طور پر ",
  "1636": " پڑھ",
  "1637": " کم ",
  "1638": "پنج",
  "1639": " چڑ",
  "1640": "وا ",
  "1641": " گیا ",
  "1642": "ہو گئی۔ ",
  "1643": "فاظ",
  "1644": "کھا",
  "1645": "وڑا ",
  "1646": "چکے ",
  "1647": "آنکھیں ",
  "1648": "یل ",
  "1649": "فع",
  "1650": "امی نے ",
  "1651": "اخت",
  "1652": "وں کو",
  "1653": " کی جان",
  "1654": " پری",
  "1655": " کال",
  "1656": "شہزاد",
  "1657": "ارہ ",
  "1658": "سمند",
  "1659": "ہے؟“ ",
  "1660": "بو ",
  "1661": "ر سے ",
  "1662": " گز",
  "1663": "گا اور ",
  "1664": "جد",
  "1665": "لال",
  "1666": "بھال",
  "1667": "ہے ک",
  "1668": "سمجھا",
  "1669": "سے کہ",
  "1670": "پٹ",
  "1671": " اب وہ ",
  "1672": "گاڑی ",
  "1673": "گدھ",
  "1674": " بھی",
  "1675": "خا",
  "1676": "شرمند",
  "1677": "خواہ",
  "1678": "یرے ",
  "1679": "سبز",
  "1680": "خد",
  "1681": " کھڑے ",
  "1682": "لے ک",
  "1683": "ار میں ",
  "1684": " یہ سن کر ",
  "1685": " کیا",
  "1686": "بری ",
  "1687": "خبر ",
  "1688": "ے ہوئے ",
  "1689": "توڑ",
  "1690": "یں کہ ",
  "1691": " کی بات ",
  "1692": "ایک دن",
  "1693": " طرح",
  "1694": " ”ارے ",
  "1695": "سز",
  "1696": " شہ",
  "1697": " کا ک",
  "1698": "زینب",
  "1699": "دیل",
  "1700": "اہر ",
  "1701": "فیصلہ ک",
  "1702": "مصروف",
  "1703": "شکر ",
  "1704": "نے کھ",
  "1705": "چیخ",
  "1706": "ھیں ",
  "1707": "باوجود",
  "1708": " کر رہے ",
  "1709": "پیار ",
  "1710": " کہنے لگ",
  "1711": " کار",
  "1712": "صیح",
  "1713": " بنا",
  "1714": "خرا",
  "1715": "سامان",
  "1716": "بغیر ",
  "1717": "جاؤں ",
  "1718": "غصہ ",
  "1719": "آیا اور ",
  "1720": "طل",
  "1721": "ہوتا ",
  "1722": "م کو ",
  "1723": "زبان",
  "1724": "چھوڑ کر ",
  "1725": "یاد آ",
  "1726": "حسن",
  "1727": " چکا ",
  "1728": "باہر نکل",
  "1729": "ہوں کہ ",
  "1730": "بہت خوش ہو",
  "1731": "نیک",
  "1732": "موٹ",
  "1733": " کرتے ہوئے ",
  "1734": "پتھ",
  "1735": "نی ک",
  "1736": "نز",
  "1737": " ایسا ",
  "1738": "جا سک",
  "1739": " ”یہ ",
  "1740": "نع",
  "1741": "انہوں نے ",
  "1742": "بخ",
  "1743": "معافی ",
  "1744": "معاف",
  "1745": "آر",
  "1746": "خواہش",
  "1747": "ے کی طرف",
  "1748": "آپ نے ",
  "1749": " اور",
  "1750": "ا دی",
  "1751": "یٹ",
  "1752": " یہاں ",
  "1753": "بہت م",
  "1754": "ایسے ",
  "1755": " اچھا ",
  "1756": "اٹ",
  "1757": "ایسی ",
  "1758": "والا ",
  "1759": "پرندے ",
  "1760": "شوق",
  "1761": "و کو ",
  "1762": "ا کہ ک",
  "1763": " آدمی ",
  "1764": "ولیس",
  "1765": "فکر ",
  "1766": "تعمال",
  "1767": " کی وجہ سے ",
  "1768": "سہ",
  "1769": "لیا۔ ",
  "1770": "تا تھا،",
  "1771": "و اور ",
  "1772": " انسان",
  "1773": "طبی",
  "1774": "چمک",
  "1775": "یاب ",
  "1776": "دو۔ ",
  "1777": "ے گا۔ ",
  "1778": "عمل",
  "1779": " اگلے دن",
  "1780": "آنسو ",
  "1781": "رص",
  "1782": "تا",
  "1783": " لوم",
  "1784": "موقع",
  "1785": "غریب ",
  "1786": "دوبارہ ",
  "1787": "حیرت سے ",
  "1788": "سین",
  "1789": "شکریہ اد",
  "1790": " کرو۔ ",
  "1791": "ت اور ",
  "1792": " تھا کہ ",
  "1793": "ی کے لئے ",
  "1794": " بک",
  "1795": "ورنہ ",
  "1796": "نے کچھ",
  "1797": " دار ",
  "1798": "نوٹ",
  "1799": "نہیں کر",
  "1800": "جنگل کے ",
  "1801": "چر",
  "1802": "نکال کر ",
  "1803": "سب کچھ",
  "1804": "اسٹر ",
  "1805": "بولے:”",
  "1806": " گیا اور ",
  "1807": "انع",
  "1808": " ص",
  "1809": " امی",
  "1810": " جات",
  "1811": "تھا",
  "1812": "یڈ",
  "1813": "لیف",
  "1814": "ہے تو ",
  "1815": "ذا ",
  "1816": "زور سے ",
  "1817": " بڑی ",
  "1818": "دان",
  "1819": " لے کر ",
  "1820": "عث",
  "1821": " اڑ",
  "1822": "نج",
  "1823": "نے اسے ",
  "1824": "خواہ ",
  "1825": "ادوگر",
  "1826": "پڑا ",
  "1827": "بہا",
  "1828": "پل",
  "1829": "یلے ",
  "1830": "رش",
  "1831": " جاؤ",
  "1832": "تمام",
  "1833": " کہاں ",
  "1834": "ڈر ",
  "1835": "نہیں ہے۔ ",
  "1836": "بدل",
  "1837": "رہا۔ ",
  "1838": "علاق",
  "1839": "غیر",
  "1840": "توجہ ",
  "1841": "بجائے ",
  "1842": "آدمی",
  "1843": " ان کا ",
  "1844": "خاط",
  "1845": "اماں ",
  "1846": " جلد",
  "1847": "تھک",
  "1848": "بیوی ",
  "1849": "تک پہنچ",
  "1850": "بیل",
  "1851": "خرچ",
  "1852": "اع",
  "1853": "وں۔ ",
  "1854": "ایسا",
  "1855": "ہ نے ",
  "1856": "ی کہ",
  "1857": "ے؟",
  "1858": "مہ",
  "1859": "جائے گا۔ ",
  "1860": "تھے کہ ",
  "1861": "دل ",
  "1862": " ہو جا",
  "1863": "اچھے ",
  "1864": "بچو! ",
  "1865": "بچوں کی ",
  "1866": "تکلیف",
  "1867": "وار ",
  "1868": "خون",
  "1869": "ائی کی ",
  "1870": "نے کو",
  "1871": "نے اور ",
  "1872": " تین",
  "1873": " اتنی ",
  "1874": "ما ",
  "1875": " درخت",
  "1876": "قید",
  "1877": " کر رہا ",
  "1878": "چھوڑ د",
  "1879": " کون",
  "1880": "ایک پ",
  "1881": "ٹانگ",
  "1882": "دس",
  "1883": "باقی ",
  "1884": "چاند",
  "1885": " گاؤں ",
  "1886": "نصیح",
  "1887": "ارش",
  "1888": "آؤ",
  "1889": " بھائی",
  "1890": " کافی ",
  "1891": "ادھر ادھر ",
  "1892": " نے کہا:”",
  "1893": "اندھ",
  "1894": " گر",
  "1895": " بنا ",
  "1896": "ریق",
  "1897": "انپ",
  "1898": " تھوڑی دیر ",
  "1899": " چند",
  "1900": "رومال",
  "1901": "لوٹ",
  "1902": "نئے ",
  "1903": "یوں کی ",
  "1904": "مارے ",
  "1905": "تنا ",
  "1906": "رائے ",
  "1907": "لومڑ",
  "1908": "مٹ",
  "1909": "چھل",
  "1910": "ے؟“ ",
  "1911": "پانچ",
  "1912": "داخل ہو",
  "1913": "درخت پر ",
  "1914": "بست",
  "1915": "گھر کا ",
  "1916": "گند",
  "1917": " کھانا",
  "1918": "وں،",
  "1919": " بیٹ",
  "1920": "رض",
  "1921": "بالکل",
  "1922": " کی آواز",
  "1923": "خود کو ",
  "1924": "ہو گی۔ ",
  "1925": "بت ",
  "1926": "نار",
  "1927": " سی",
  "1928": " مک",
  "1929": "قریب",
  "1930": "یکٹ",
  "1931": "ندہ ",
  "1932": " علی ",
  "1933": "عمر",
  "1934": "ل میں ",
  "1935": "یا کہ وہ ",
  "1936": " تھا،",
  "1937": "تے ہو",
  "1938": "خیال رکھ",
  "1939": "ے تھے۔ ",
  "1940": "جواب دیا۔ ",
  "1941": "طوطا ",
  "1942": "جھک",
  "1943": "بادشاہ",
  "1944": " کہا ",
  "1945": "انکل",
  "1946": " کرتی ",
  "1947": "معام",
  "1948": "چہرے ",
  "1949": "سڑک",
  "1950": "مطاب",
  "1951": " را",
  "1952": "شہد",
  "1953": "شیراز",
  "1954": " رہا تھا کہ ",
  "1955": " بڑے ",
  "1956": "نہیں تھا۔ ",
  "1957": "ئی کہ ",
  "1958": "ر کا ",
  "1959": " کے سامنے ",
  "1960": "مزید",
  "1961": "تے ہوئے کہا:”",
  "1962": "پھینک",
  "1963": "ٹھنڈ",
  "1964": "ر پر ",
  "1965": "نیند",
  "1966": "وجوان",
  "1967": "فض",
  "1968": "ا دیا۔ ",
  "1969": "بتا ",
  "1970": "ہوں گ",
  "1971": "وقوف",
  "1972": " کئی ",
  "1973": "نوک",
  "1974": "لکڑ",
  "1975": " کاٹ",
  "1976": "راستہ ",
  "1977": "م ب",
  "1978": "رہے تھے کہ ",
  "1979": "ی کو",
  "1980": "ہو گیا ",
  "1981": "تا رہا۔ ",
  "1982": "مطابق",
  "1983": " اچھی ",
  "1984": "پہاڑ",
  "1985": "ران",
  "1986": "چرا",
  "1987": "حل",
  "1988": "پاپ",
  "1989": "مے ",
  "1990": " ادھر ",
  "1991": "وہ بھی ",
  "1992": "طالب ",
  "1993": "گہ",
  "1994": "“ ",
  "1995": "ائے۔ ",
  "1996": "آنکھوں میں ",
  "1997": "بیٹھا ",
  "1998": " مو",
  "1999": "لگا ",
  "2000": "ائب ",
  "2001": "گلی ",
  "2002": "جیب ",
  "2003": "میاں",
  "2004": "تا تھا کہ ",
  "2005": "پیس",
  "2006": "طریق",
  "2007": " بھائی ",
  "2008": "دست",
  "2009": "باغ",
  "2010": " کرنا چاہ",
  "2011": " کر دیا ",
  "2012": "عقل",
  "2013": "ہمارا ",
  "2014": "جھوٹ",
  "2015": " بیگ",
  "2016": "سکون",
  "2017": "لومڑی ",
  "2018": "بہت سے ",
  "2019": " کی طرف دیکھ",
  "2020": " غ",
  "2021": "کچھ",
  "2022": "تی،",
  "2023": "سچ",
  "2024": "ونٹ",
  "2025": "یلا ",
  "2026": "خط",
  "2027": "بخش",
  "2028": "برتن",
  "2029": " بھوک",
  "2030": "جاز",
  "2031": "آ گئے۔ ",
  "2032": "حصہ ",
  "2033": "تم لوگ",
  "2034": "کیوں ",
  "2035": "ٹوٹ",
  "2036": " کو دیکھ",
  "2037": " ہو گئے۔ ",
  "2038": "امتح",
  "2039": "مجھ سے ",
  "2040": "رکھ د",
  "2041": "ایا اور ",
  "2042": "چیزیں ",
  "2043": "آسان",
  "2044": "بھائی! ",
  "2045": "تلاش میں ",
  "2046": " یہ کہ",
  "2047": "تینوں ",
  "2048": " بلکہ ",
  "2049": " بھال",
  "2050": " کر رہے تھے۔ ",
  "2051": " یوں ",
  "2052": "ایک ل",
  "2053": "بیچ",
  "2054": "روانہ ",
  "2055": " نظر ",
  "2056": "فری",
  "2057": "پاکست",
  "2058": "لا کر ",
  "2059": "ایک دوسر",
  "2060": "جس سے ",
  "2061": "مل ",
  "2062": "درمی",
  "2063": "عنی ",
  "2064": "گاؤں میں ",
  "2065": "درخت کے ",
  "2066": "بطخ",
  "2067": "آئے۔ ",
  "2068": " وہ اپنے ",
  "2069": "نہ کر",
  "2070": "سبق",
  "2071": "تے تو ",
  "2072": "موبائ",
  "2073": "بھی نہیں ",
  "2074": " بھاگ",
  "2075": "نے والا ",
  "2076": "تی ہوئی ",
  "2077": "یں گے،",
  "2078": " ہیں۔ ",
  "2079": "تعلق",
  "2080": "شور ",
  "2081": "اظ",
  "2082": " ہو گئی۔ ",
  "2083": " گیا تھا۔ ",
  "2084": " رہ ",
  "2085": "باندھ",
  "2086": " ہمارے ",
  "2087": "عید",
  "2088": "خطر",
  "2089": " صاحب ",
  "2090": "ایک د",
  "2091": "چک",
  "2092": "یہ بات ",
  "2093": "چائے ",
  "2094": "پین",
  "2095": " نو",
  "2096": "ماغ",
  "2097": "جانا ",
  "2098": "یوں سے ",
  "2099": "پال",
  "2100": "ہوں اور ",
  "2101": "اس طرح",
  "2102": "درد",
  "2103": "والی ",
  "2104": "یم ",
  "2105": "ملے ",
  "2106": "نے کہا ",
  "2107": "خالی ",
  "2108": "شع",
  "2109": "قدم",
  "2110": "یوں کو ",
  "2111": "غصے سے ",
  "2112": "تنی ",
  "2113": "سخت ",
  "2114": "ائی اور ",
  "2115": "یہ نے ",
  "2116": " سو ",
  "2117": "تعلیم ",
  "2118": "ی پر ",
  "2119": "زینب ",
  "2120": "گی سے ",
  "2121": "اشرف",
  "2122": " شیر",
  "2123": " مرغ",
  "2124": "روزہ ",
  "2125": " بڑا ",
  "2126": "یا ک",
  "2127": "رہتا تھا۔ ",
  "2128": " کر لیا۔ ",
  "2129": " بھی ک",
  "2130": "مجب",
  "2131": "  میں ",
  "2132": "ہو تو ",
  "2133": " ہے کہ ",
  "2134": "خالہ ",
  "2135": "خور",
  "2136": "وص",
  "2137": "خوش ہو",
  "2138": "تمھیں ",
  "2139": "نہ ہو",
  "2140": "ہوتا ہے۔ ",
  "2141": " شا",
  "2142": "استاد",
  "2143": "تیا",
  "2144": "اس وقت ",
  "2145": "رکی",
  "2146": "عال",
  "2147": "ہمان",
  "2148": "لہج",
  "2149": " شام",
  "2150": "قائ",
  "2151": "م کا ",
  "2152": "سور",
  "2153": "مختلف",
  "2154": "داری ",
  "2155": "پورا ",
  "2156": " کن",
  "2157": "یلی ",
  "2158": "دماغ",
  "2159": "ایک ج",
  "2160": " کہیں ",
  "2161": "میز",
  "2162": "چہ ",
  "2163": "اور کہا:”",
  "2164": "ائی کے ",
  "2165": "سیکھ",
  "2166": "پہلی ",
  "2167": "تے ہیں اور ",
  "2168": "ڈو",
  "2169": " بھی نہیں ",
  "2170": "ے؟“",
  "2171": "تھا تو ",
  "2172": " کرنے کے لئے ",
  "2173": "شش",
  "2174": "ناش",
  "2175": " شک",
  "2176": "ی ہوئی ",
  "2177": "بوط",
  "2178": "ی ہے۔ ",
  "2179": "سر پر ",
  "2180": " کے گھر ",
  "2181": " اف",
  "2182": "بداللہ ",
  "2183": "د نے ",
  "2184": " لومڑی ",
  "2185": " علی",
  "2186": "حان",
  "2187": "ڈک",
  "2188": "حرک",
  "2189": "اسٹ",
  "2190": "تیں ",
  "2191": "آزاد",
  "2192": "نے اپنی ",
  "2193": "دید",
  "2194": "ضروری ",
  "2195": " راس",
  "2196": "ہوا تھا۔ ",
  "2197": "گیا تھا۔ ",
  "2198": " ”ہاں ",
  "2199": "یہ کہہ کر ",
  "2200": "اب میں ",
  "2201": "تھیں،",
  "2202": "گون",
  "2203": " بال",
  "2204": "دادی جان",
  "2205": "  یہ ",
  "2206": "نے کی وجہ سے ",
  "2207": "پچھ",
  "2208": "اٹھا کر ",
  "2209": "حکم ",
  "2210": "خوبصورت",
  "2211": "یا کے ",
  "2212": "سائے ",
  "2213": "بکر",
  "2214": "سب کو ",
  "2215": "قسم",
  "2216": "حمل",
  "2217": " ایسے ",
  "2218": "ایک س",
  "2219": "گیا،",
  "2220": "چاروں ",
  "2221": "سار",
  "2222": " کر رہی ",
  "2223": "رین",
  "2224": " کھو",
  "2225": "جواب د",
  "2226": "نا،",
  "2227": " کچھ دیر بعد",
  "2228": "چکا تھا۔ ",
  "2229": " امی نے ",
  "2230": " پو",
  "2231": "تا ہے اور ",
  "2232": "دم ",
  "2233": "غائب ",
  "2234": " لکھ",
  "2235": "تب ",
  "2236": "معمول",
  "2237": "گل",
  "2238": "منڈ",
  "2239": "گھر کی ",
  "2240": "صاحب! ",
  "2241": "ونا ",
  "2242": "یوں کے ",
  "2243": "اے ",
  "2244": "بے حد",
  "2245": "بابا",
  "2246": "آئی۔ ",
  "2247": "بچے کو ",
  "2248": "ا تو وہ ",
  "2249": "جماعت میں ",
  "2250": "اول",
  "2251": " بھر ",
  "2252": "تی تھیں۔ ",
  "2253": "اگلے ",
  "2254": "وہیں ",
  "2255": "فر ",
  "2256": "اللہ تع",
  "2257": " سر ",
  "2258": "تو میں ",
  "2259": "بانی ",
  "2260": "رکھا ",
  "2261": "تیں۔ ",
  "2262": " ہاتھ",
  "2263": "رہے ہیں۔ ",
  "2264": "بج",
  "2265": "طرف دیکھ",
  "2266": "ایک ت",
  "2267": "دہ",
  "2268": "ار سے ",
  "2269": "زار",
  "2270": "یں:”",
  "2271": "ؤں",
  "2272": "ائع",
  "2273": "پا",
  "2274": "خان",
  "2275": "زخمی ",
  "2276": "گردن",
  "2277": " بات ",
  "2278": "روک",
  "2279": "بکرا ",
  "2280": "آمد",
  "2281": "شاد",
  "2282": "ذاق",
  "2283": " وقت ",
  "2284": "سلی",
  "2285": "بیٹھ کر ",
  "2286": "ماری ",
  "2287": "اسکول میں ",
  "2288": "ائی،",
  "2289": "ذمے ",
  "2290": "یہ بھی ",
  "2291": " کی طرح",
  "2292": "روشنی ",
  "2293": "باتیں",
  "2294": "جان! ",
  "2295": "نے سے پہلے ",
  "2296": " کچھ دن",
  "2297": " شروع",
  "2298": "جیب",
  "2299": "کوئی ",
  "2300": "طبیع",
  "2301": "بلند",
  "2302": " ”کیا ",
  "2303": "منہ میں ",
  "2304": " دے ",
  "2305": " ز",
  "2306": "تا کہ ",
  "2307": "ملازم",
  "2308": "رن",
  "2309": "ام میں ",
  "2310": "نہیں ک",
  "2311": "پولیس",
  "2312": "چان",
  "2313": "ام سے ",
  "2314": " بلی ",
  "2315": "قریبا ",
  "2316": "چال",
  "2317": "گرد",
  "2318": "استعمال",
  "2319": "یوں میں ",
  "2320": "ماں باپ",
  "2321": " اس کو ",
  "2322": "فاق",
  "2323": "ت کو ",
  "2324": "جال",
  "2325": "حفاظ",
  "2326": "دھی",
  "2327": "آپ کا ",
  "2328": "گاڑ",
  "2329": "ایک طرف",
  "2330": "ان کے ساتھ",
  "2331": "ا کیا۔ ",
  "2332": "مزور ",
  "2333": "مجھے ک",
  "2334": "بیٹے ",
  "2335": "چہر",
  "2336": "ہوتی ہے۔ ",
  "2337": "سنا ",
  "2338": " کمرے میں ",
  "2339": "باعث",
  "2340": " کر رہا تھا۔ ",
  "2341": "ہ کا ",
  "2342": " آئی۔ ",
  "2343": "ہ کو ",
  "2344": "اثر ",
  "2345": "تیس",
  "2346": " بادشاہ نے ",
  "2347": "بادشاہ سلام",
  "2348": "تا ہوں،",
  "2349": " نکل",
  "2350": " وہ دونوں ",
  "2351": "سوچا کہ ",
  "2352": " جنگل میں ",
  "2353": "پاؤں ",
  "2354": "اکثر ",
  "2355": "ڈی",
  "2356": " ملا",
  "2357": "کو ",
  "2358": "امد",
  "2359": "گاؤں کے ",
  "2360": "ہن",
  "2361": "تے تھے،",
  "2362": "گیا تو ",
  "2363": "وہ اپنے ",
  "2364": "جھاڑ",
  "2365": "نہا",
  "2366": "تبہ ",
  "2367": "سمجھ میں ",
  "2368": "سانپ",
  "2369": "ادہ ",
  "2370": "فائدہ ",
  "2371": " پہ ",
  "2372": "راہ ",
  "2373": "ان پر ",
  "2374": "ست ",
  "2375": "لٹ",
  "2376": " ہزار ",
  "2377": " چکی ",
  "2378": " حسن",
  "2379": " محن",
  "2380": "گی،",
  "2381": " نے اسے ",
  "2382": "تی اور ",
  "2383": " ”نہیں ",
  "2384": "میٹ",
  "2385": "لام ",
  "2386": "پتھر ",
  "2387": " خود",
  "2388": "مست",
  "2389": "لمح",
  "2390": "ا کے ",
  "2391": "تا ہے کہ ",
  "2392": " ننھ",
  "2393": "ہ کھول",
  "2394": "گئیں۔ ",
  "2395": "چھٹ",
  "2396": "بارک",
  "2397": "ہو گیا تھا۔ ",
  "2398": "اپنے گھر ",
  "2399": "نظروں سے ",
  "2400": " صاحب نے ",
  "2401": " اس کے بعد",
  "2402": " کوا ",
  "2403": " مس",
  "2404": "می سے ",
  "2405": "پڑوس",
  "2406": " ایسی ",
  "2407": "شاخ",
  "2408": "میت ",
  "2409": " پریشان",
  "2410": "وت ",
  "2411": "خوراک",
  "2412": "اقبال",
  "2413": "ضد",
  "2414": "اپنے ساتھ",
  "2415": "شکار",
  "2416": "زندگ",
  "2417": "دیر میں ",
  "2418": " ہمیں ",
  "2419": "چوک",
  "2420": "آخ",
  "2421": "دیر تک",
  "2422": "؟ ",
  "2423": "اس کے پاس ",
  "2424": " اپنا ",
  "2425": " کا نام ",
  "2426": " کھانے ",
  "2427": "وں گی۔ ",
  "2428": "تے ہیں کہ ",
  "2429": "ینچ",
  "2430": "ی کے ساتھ",
  "2431": "یدہ ",
  "2432": "ہہ ",
  "2433": "نے کا",
  "2434": "ائش",
  "2435": " کوشش",
  "2436": "رہی تھیں۔ ",
  "2437": "پورے ",
  "2438": "مٹھو ",
  "2439": "رو ",
  "2440": "دکھائی ",
  "2441": "اس کے ساتھ",
  "2442": "حیران رہ ",
  "2443": " دیکھ کر ",
  "2444": " تھا ",
  "2445": "ٹوک",
  "2446": "جنگ",
  "2447": "ایک ک",
  "2448": "چہرے پر ",
  "2449": "معافی مانگ",
  "2450": "تو اسے ",
  "2451": "غور سے ",
  "2452": "اتون",
  "2453": "خوشی خوشی ",
  "2454": "ڈھیر ",
  "2455": "چھوٹی سی ",
  "2456": "شانی ",
  "2457": " پور",
  "2458": " دادا جان",
  "2459": "فاخت",
  "2460": " روز",
  "2461": " مکھ",
  "2462": "یلئے ",
  "2463": "اماں",
  "2464": "ا لیا۔ ",
  "2465": "اتر",
  "2466": "شرمندہ ",
  "2467": "پرو",
  "2468": "جازت ",
  "2469": "منع",
  "2470": "یا کو ",
  "2471": "انا شروع",
  "2472": "ینٹ",
  "2473": " ہم نے ",
  "2474": " کچھ ہی ",
  "2475": "سفید",
  "2476": "سے کچھ",
  "2477": "ے کر",
  "2478": "دیکھو ",
  "2479": " ہوں",
  "2480": "تی ہوں۔ ",
  "2481": "علاج",
  "2482": "سپتال",
  "2483": " ماں ",
  "2484": "بالکل ",
  "2485": "ہمت ",
  "2486": " آن",
  "2487": "دول",
  "2488": "آیا تو ",
  "2489": "رات کے ",
  "2490": "تمہار",
  "2491": "سوچ کر ",
  "2492": "لم ",
  "2493": " کر لی",
  "2494": "لوگوں کو ",
  "2495": "گم ",
  "2496": "ی بھی ",
  "2497": "امہ ",
  "2498": "مذاق",
  "2499": " کی ت",
  "2500": "مقاب",
  "2501": "تی ہے ",
  "2502": "اس کے لئے ",
  "2503": "رز",
  "2504": "محبت",
  "2505": "میڈ",
  "2506": "طن",
  "2507": "عظ",
  "2508": " سائ",
  "2509": "ڈانٹ",
  "2510": "شمن",
  "2511": "جاری ",
  "2512": "راب",
  "2513": "خیر",
  "2514": "امتحان",
  "2515": "آواز سن",
  "2516": "ے کے لئے ",
  "2517": "شی",
  "2518": "امی! ",
  "2519": " حال",
  "2520": " لہ",
  "2521": "ازہ ",
  "2522": " کھڑی ",
  "2523": "اپنی ک",
  "2524": " بر",
  "2525": "وں گا،",
  "2526": "ختم",
  "2527": "ہو گئے ",
  "2528": "ادھ",
  "2529": " کی،",
  "2530": " کو دیکھ کر ",
  "2531": "شکل ",
  "2532": "الگ",
  "2533": "فعہ ",
  "2534": " نے ک",
  "2535": "جلد ہی ",
  "2536": "مسل",
  "2537": " نہیں آ",
  "2538": "ابا جان",
  "2539": "ہرن",
  "2540": " آئ",
  "2541": " وہ بھی ",
  "2542": " کی اور ",
  "2543": "بے وقوف",
  "2544": "انتظار",
  "2545": "بتایا۔ ",
  "2546": "دلچ",
  "2547": "بوتر ",
  "2548": "جسے ",
  "2549": "د میں ",
  "2550": "سے کوئی ",
  "2551": "دوستی ",
  "2552": "تھوڑی ",
  "2553": "والدہ ",
  "2554": "واقعی ",
  "2555": " من",
  "2556": "پریشان ہو",
  "2557": "خراب ",
  "2558": "ابا",
  "2559": "چھلانگ",
  "2560": " (",
  "2561": "افہ ",
  "2562": " ہان",
  "2563": "نہیں لگ",
  "2564": "نئی ",
  "2565": "زندہ ",
  "2566": "احول",
  "2567": " رنگ",
  "2568": "مسا",
  "2569": " کرنے ",
  "2570": "راستے ",
  "2571": "اڑی ",
  "2572": " اتنے میں ",
  "2573": " کر دی۔ ",
  "2574": "خیال آ",
  "2575": " اللہ",
  "2576": " نہیں کر",
  "2577": "ہو جائے ",
  "2578": " دوسری ",
  "2579": "فرم",
  "2580": "لی اور ",
  "2581": "آسمان",
  "2582": "اتنے ",
  "2583": "کل",
  "2584": " باز",
  "2585": "دنیا میں ",
  "2586": "راؤ",
  "2587": " موس",
  "2588": "جانے ",
  "2589": "بلا ",
  "2590": "بابا ",
  "2591": "پہل",
  "2592": "ذری",
  "2593": "ذریع",
  "2594": "کو",
  "2595": "مضبوط",
  "2596": " سے کہ",
  "2597": "ضرور",
  "2598": " بی ",
  "2599": "نرم ",
  "2600": "یار",
  "2601": "انے ",
  "2602": "م اور ",
  "2603": "شکار ",
  "2604": " کیا،",
  "2605": " واپس",
  "2606": " چاہ",
  "2607": "اد نے ",
  "2608": "امید",
  "2609": "آہستہ آہستہ ",
  "2610": " ہوئے ",
  "2611": "وم",
  "2612": "مید",
  "2613": "پیاری ",
  "2614": "چچا ",
  "2615": " بارش",
  "2616": "ائق",
  "2617": "شکای",
  "2618": "یا کی ",
  "2619": "تی ہے،",
  "2620": "باب",
  "2621": "ہم نے ",
  "2622": "سوار ",
  "2623": "  مجھے ",
  "2624": "داخل",
  "2625": " چلا ",
  "2626": " اگر",
  "2627": "میں کوئی ",
  "2628": "چوہ",
  "2629": " کی بات",
  "2630": " کیا کر",
  "2631": "انے کے لئے ",
  "2632": " پڑا۔ ",
  "2633": "گھوڑ",
  "2634": "ری کے ",
  "2635": "مکن",
  "2636": "طاقت",
  "2637": " کہان",
  "2638": " خال",
  "2639": " تھوڑی دیر بعد",
  "2640": "حیران ہو",
  "2641": "بھئی ",
  "2642": "ضائع",
  "2643": " انس",
  "2644": "سوچا ",
  "2645": " کرو،",
  "2646": "ہے! ",
  "2647": "رام ",
  "2648": "رانے ",
  "2649": " تمہارے ",
  "2650": "فوظ",
  "2651": "یہ سن کر ",
  "2652": "تھوڑا ",
  "2653": " جن",
  "2654": "تیاط",
  "2655": "دلچسپ",
  "2656": "رہتے تھے۔ ",
  "2657": " “ وہ ",
  "2658": "غریب",
  "2659": "سزا ",
  "2660": " تم نے ",
  "2661": "لینے ",
  "2662": " اسی لئے ",
  "2663": "برس",
  "2664": "ہ کیا ",
  "2665": "تھا جو ",
  "2666": " است",
  "2667": " اچھے ",
  "2668": "ا ہوا تھا۔ ",
  "2669": "سورج",
  "2670": " کرکے ",
  "2671": "قو",
  "2672": "تحف",
  "2673": "شرارت",
  "2674": "شام ",
  "2675": "چھوٹے سے ",
  "2676": "ائی سے ",
  "2677": "اس نے ک",
  "2678": "دفت",
  "2679": "مزے ",
  "2680": "لیا ",
  "2681": " خوش",
  "2682": " دوست",
  "2683": "زما",
  "2684": "بزرگ",
  "2685": " کتاب",
  "2686": "شکر اد",
  "2687": " احمد نے ",
  "2688": "قدم ",
  "2689": "ہائی ",
  "2690": "ذہن میں ",
  "2691": " کر کہا:”",
  "2692": " ڈاکٹر ",
  "2693": " زیادہ ",
  "2694": " ایک د",
  "2695": " کبھی ک",
  "2696": "دیوار ",
  "2697": "جان بچ",
  "2698": "ونک",
  "2699": "وں کی طرح",
  "2700": "باری ",
  "2701": " پرند",
  "2702": "دادا ",
  "2703": "چکی تھی۔ ",
  "2704": "تا تو ",
  "2705": "لو۔ ",
  "2706": "ورک",
  "2707": "و کے ",
  "2708": "رے میں ",
  "2709": "بوت",
  "2710": "سیر",
  "2711": "تس",
  "2712": "تھا:”",
  "2713": "نق",
  "2714": "جا رہا تھا۔ ",
  "2715": "عرص",
  "2716": "گئی اور ",
  "2717": "پکڑ کر ",
  "2718": "ایک ع",
  "2719": "معاملہ ",
  "2720": "قربان",
  "2721": "صحت",
  "2722": "تی سے ",
  "2723": "انداز میں ",
  "2724": " شیر نے ",
  "2725": " اتنا ",
  "2726": " دی۔ ",
  "2727": " اس ب",
  "2728": "وہ",
  "2729": "زہ ",
  "2730": " جمع",
  "2731": " سل",
  "2732": "ہوئے تھے۔ ",
  "2733": "درمیان",
  "2734": "آنکھوں سے ",
  "2735": "تے کے ",
  "2736": "مل کر ",
  "2737": " پکڑ",
  "2738": "جانب ",
  "2739": "فا ",
  "2740": "اپنے دوست",
  "2741": "راض",
  "2742": "اصل ",
  "2743": "روشن",
  "2744": "ہاں،",
  "2745": "صحی",
  "2746": "صحیح",
  "2747": "ٹکٹ",
  "2748": "جیسے ہی ",
  "2749": "بے میں ",
  "2750": "جا رہا ",
  "2751": "آ گئی۔ ",
  "2752": " سی ",
  "2753": "علان",
  "2754": "نہری ",
  "2755": "آخری ",
  "2756": " فون",
  "2757": " دکھ",
  "2758": "دے د",
  "2759": "مہر",
  "2760": "سی کو ",
  "2761": "دبا",
  "2762": "معصو",
  "2763": "نوجوان",
  "2764": "سے کہا۔ ",
  "2765": "قریبی ",
  "2766": " ”جی ",
  "2767": "ات کا ",
  "2768": "د کے ",
  "2769": "محل",
  "2770": "گہ ",
  "2771": "بہت پسند",
  "2772": "مخاط",
  "2773": " پیارے ",
  "2774": "ایک ہی ",
  "2775": "ا کو ",
  "2776": "محسوس ہو",
  "2777": "پی ",
  "2778": "و کی ",
  "2779": " بادشاہ",
  "2780": "دروازے پر ",
  "2781": "بیو",
  "2782": "اندازہ ",
  "2783": "ڑ کر ",
  "2784": "لب",
  "2785": "تنخواہ ",
  "2786": " ایک بار ",
  "2787": "نے لگیں۔ ",
  "2788": " وہ بہت ",
  "2789": "عورت",
  "2790": " لڑکا ",
  "2791": " ڈ",
  "2792": "دھری ",
  "2793": "نے لگے ",
  "2794": "ائشہ ",
  "2795": "قس",
  "2796": "فیصلہ",
  "2797": " شہزاد",
  "2798": "جذ",
  "2799": "جادوگر",
  "2800": "ہی نہیں ",
  "2801": "جگن",
  "2802": "شکاری ",
  "2803": "لہا",
  "2804": "ایک بہت",
  "2805": "ائیں۔ ",
  "2806": " لوٹ",
  "2807": " راستے میں ",
  "2808": "شہور ",
  "2809": "گرم ",
  "2810": " اتنے ",
  "2811": "گئے،",
  "2812": "لائے ",
  "2813": "انعام ",
  "2814": "پڑی۔ ",
  "2815": "مارٹ",
  "2816": "یں گے اور ",
  "2817": "چلا کہ ",
  "2818": "منہ",
  "2819": " جیسے ہی ",
  "2820": "راصل",
  "2821": " آنکھ",
  "2822": " کی تو ",
  "2823": " میں کچھ",
  "2824": "سانس",
  "2825": "ہوتے ہیں۔ ",
  "2826": "تھیں ",
  "2827": "پہنچا تو ",
  "2828": "انس",
  "2829": " دیا ",
  "2830": "ا سک",
  "2831": "یہ تو ",
  "2832": " میں بھی ",
  "2833": "کس",
  "2834": "چے ",
  "2835": "نہیں کر سک",
  "2836": "سنی ",
  "2837": "مکان",
  "2838": "وہاں",
  "2839": "گھر وال",
  "2840": " کو بھی ",
  "2841": "عورت ",
  "2842": "مہمان",
  "2843": "چلو ",
  "2844": "منظر ",
  "2845": "نے کی کوشش کر",
  "2846": "پیار سے ",
  "2847": "ہ کی ",
  "2848": "قال",
  "2849": " کے بارے میں ",
  "2850": "مشور",
  "2851": "فیصلہ ",
  "2852": "لڑکا ",
  "2853": "پتے ",
  "2854": "یا! ",
  "2855": "کے نے ",
  "2856": "ے کے ساتھ",
  "2857": "ایک چ",
  "2858": "پتہ ",
  "2859": "مگر",
  "2860": " محسوس",
  "2861": "لاح",
  "2862": "پت",
  "2863": " مٹ",
  "2864": "عادت ",
  "2865": "....! ",
  "2866": " گاؤں",
  "2867": "جویز",
  "2868": " کیلئے ",
  "2869": "مسکراہٹ",
  "2870": "حسا",
  "2871": "نانی ",
  "2872": "ننھے ",
  "2873": "نے کیلئے ",
  "2874": "ابو نے ",
  "2875": "لے جا",
  "2876": "ماسٹر ",
  "2877": " چکا تھا۔ ",
  "2878": "میں بھی ",
  "2879": "حیرت ",
  "2880": "باہر",
  "2881": "خاند",
  "2882": " تیز",
  "2883": "رخ",
  "2884": "پیارے ",
  "2885": " ابو ",
  "2886": "نے لگا ",
  "2887": "ہسپتال",
  "2888": "ے کو",
  "2889": "دیک",
  "2890": " تب ",
  "2891": "گئے اور ",
  "2892": "نسل",
  "2893": "پہن",
  "2894": " او",
  "2895": "مون",
  "2896": " ”آپ",
  "2897": " بہن",
  "2898": " سروش",
  "2899": " کرنے کی ",
  "2900": "ا کیا ",
  "2901": "ڑا",
  "2902": "  آپ",
  "2903": "تم سے ",
  "2904": "ظال",
  "2905": "بات سن کر ",
  "2906": " چھوٹے ",
  "2907": "چکے تھے۔ ",
  "2908": " ہو گئے ",
  "2909": " چڑیا ",
  "2910": "ہوم ",
  "2911": "اشف",
  "2912": "بتاؤ",
  "2913": "ہاتھ سے ",
  "2914": "ڈرائی",
  "2915": " باہر ",
  "2916": "شادی ",
  "2917": "جاتا ہے۔ ",
  "2918": "جاگ",
  "2919": "ور نے ",
  "2920": "چلے گئے۔ ",
  "2921": "نے کہا ”",
  "2922": " یہ کہہ کر ",
  "2923": "چچ",
  "2924": "نٹی ",
  "2925": "یسٹ",
  "2926": "ٹھیک ہے ",
  "2927": "ولا ",
  "2928": "مق",
  "2929": " ایک روز",
  "2930": "اونٹ",
  "2931": "چوہے ",
  "2932": "یں گے ",
  "2933": "روزانہ ",
  "2934": "ترکی",
  "2935": "خلا",
  "2936": "ہونا ",
  "2937": " تمہیں ",
  "2938": " عمر ",
  "2939": " خرید",
  "2940": " مام",
  "2941": "یعنی ",
  "2942": "آئندہ ",
  "2943": " شر",
  "2944": " تھیں۔ ",
  "2945": "اچھل",
  "2946": "ری میں ",
  "2947": " دین",
  "2948": " رح",
  "2949": "لی۔ ",
  "2950": " دوسرے دن",
  "2951": "پہلے ہی ",
  "2952": " بچوں کو ",
  "2953": "ایک اور ",
  "2954": "پڑھائی ",
  "2955": "جواب دیا:”",
  "2956": "تی ہے اور ",
  "2957": "سی پر ",
  "2958": "چونک",
  "2959": "نکلے ",
  "2960": " باب",
  "2961": "گھس",
  "2962": " تاکہ ",
  "2963": "صاحب کو ",
  "2964": "ے“۔ ",
  "2965": "چش",
  "2966": "معاف کر د",
  "2967": "مرے سے ",
  "2968": "انا چاہ",
  "2969": "عی",
  "2970": "سہی",
  "2971": "شہر میں ",
  "2972": " کھیل ",
  "2973": " کمر",
  "2974": " گرد",
  "2975": " معمول",
  "2976": "مبارک",
  "2977": "سروش",
  "2978": " آئے ",
  "2979": "اچھی طرح",
  "2980": "قبال",
  "2981": " ملک",
  "2982": "غصے میں ",
  "2983": "اری سے ",
  "2984": " کی طرف چل",
  "2985": "ہوئی تھی۔ ",
  "2986": "جاتا۔ ",
  "2987": "بیمار ",
  "2988": "پڑا۔ ",
  "2989": "جوش",
  "2990": "بیس",
  "2991": "نتی",
  "2992": "زی",
  "2993": "پل ",
  "2994": "تمیز",
  "2995": "ویسے ",
  "2996": "حوال",
  "2997": "پیر",
  "2998": "جاد",
  "2999": "ئلہ ",
  "3000": " روانہ ",
  "3001": "روٹ",
  "3002": "بار میں ",
  "3003": " جسے ",
  "3004": "لونے ",
  "3005": "راستے میں ",
  "3006": " اس میں ",
  "3007": "و میاں ",
  "3008": "دوسرا ",
  "3009": "انی نے ",
  "3010": "بوٹ",
  "3011": "نشان",
  "3012": "اہک",
  "3013": "تت",
  "3014": "حاش",
  "3015": " چیون",
  "3016": "جھیل",
  "3017": "شمع",
  "3018": "ینس",
  "3019": "نے کہا کہ ",
  "3020": "لوک",
  "3021": "تجر",
  "3022": "ہے جو ",
  "3023": "حقیق",
  "3024": "معلوم",
  "3025": "سخ",
  "3026": " رہا تھا،",
  "3027": "اشار",
  "3028": "ایمان",
  "3029": "قیمتی ",
  "3030": "لالچ",
  "3031": "اعلان",
  "3032": " گیا کہ ",
  "3033": " ہماری ",
  "3034": " چلا",
  "3035": "وں بعد",
  "3036": "چن",
  "3037": "م! ",
  "3038": "جانے ک",
  "3039": " گئی اور ",
  "3040": "ائیں گے۔ ",
  "3041": " دوڑ",
  "3042": "ایک گ",
  "3043": " میں تو ",
  "3044": "نزدیک",
  "3045": "پھیل",
  "3046": "تے ہو۔ ",
  "3047": " اب تو ",
  "3048": " دادی جان",
  "3049": " گئی،",
  "3050": "تھوڑی دیر ",
  "3051": "پود",
  "3052": "قبل",
  "3053": "زم ",
  "3054": "ہ کیا۔ ",
  "3055": "بدلہ ",
  "3056": "روی",
  "3057": "اشت",
  "3058": "تعریف",
  "3059": "چل ",
  "3060": "ڈال کر ",
  "3061": "ہوا،",
  "3062": "احتیاط",
  "3063": "ارٹ",
  "3064": "صحن میں ",
  "3065": " نکال",
  "3066": "ورڈ",
  "3067": "ہر وقت ",
  "3068": "ہ بھی ",
  "3069": " کل ",
  "3070": "وقت میں ",
  "3071": "لہجے میں ",
  "3072": "رکھ کر ",
  "3073": "ایک خ",
  "3074": "ٹیسٹ",
  "3075": " سویرے ",
  "3076": "تھا کہ ک",
  "3077": " فی",
  "3078": "جس میں ",
  "3079": "لہذا ",
  "3080": "یوس",
  "3081": "ایک ایک",
  "3082": " عبداللہ ",
  "3083": "تے ہوئے بول",
  "3084": "تاب ",
  "3085": "چاہیے ",
  "3086": " کرنے کا ",
  "3087": "ہ،",
  "3088": " باق",
  "3089": "ارڈ",
  "3090": "ہا،”",
  "3091": "ہزار",
  "3092": "گھونسلے میں ",
  "3093": "وہ اسے ",
  "3094": "نویں ",
  "3095": " برس",
  "3096": "چیتے ",
  "3097": " فرح",
  "3098": "رحم ",
  "3099": "لایا ",
  "3100": "اجازت ",
  "3101": " لیا ",
  "3102": "ی کی وجہ سے ",
  "3103": "طالب علم ",
  "3104": " مچھ",
  "3105": " ”لیکن",
  "3106": "ظاہ",
  "3107": " ”تو ",
  "3108": "رہے تھے ",
  "3109": "ی بھ",
  "3110": "نہی ",
  "3111": "مچ",
  "3112": " کھڑک",
  "3113": "ہوئی۔ ",
  "3114": " کسی کے ",
  "3115": "مارٹ فون",
  "3116": "تو اس نے ",
  "3117": "آ جا",
  "3118": "مصی",
  "3119": "جب تک",
  "3120": "قدر ",
  "3121": " ٹھ",
  "3122": "آئیں۔ ",
  "3123": " جس سے ",
  "3124": "حسین",
  "3125": "اکھ",
  "3126": "بیٹھی ",
  "3127": " کسی کو ",
  "3128": "گہری ",
  "3129": " گو",
  "3130": "ٹھیک ہے،",
  "3131": " نے کہا۔ ",
  "3132": " گھر کے ",
  "3133": "امیاب ",
  "3134": " پان",
  "3135": "نے اپنے ",
  "3136": "ہیں کہ ",
  "3137": "محفوظ",
  "3138": " ہرن",
  "3139": "عقل مند",
  "3140": "ہو؟“ ",
  "3141": "دوپہ",
  "3142": "مگر وہ ",
  "3143": " ایسا",
  "3144": "نے بھی ",
  "3145": " ہوا ",
  "3146": " کہہ کر ",
  "3147": "دے دی",
  "3148": "نے کے باوجود",
  "3149": "شد",
  "3150": "ہوا اور ",
  "3151": "ہ کے ",
  "3152": "تیم",
  "3153": "دکان پر ",
  "3154": " یہی ",
  "3155": "سیٹھ",
  "3156": " پری ",
  "3157": "ا کی ",
  "3158": "آپس میں ",
  "3159": "ملا۔ ",
  "3160": " بزرگ",
  "3161": " پھول",
  "3162": "بھرے ",
  "3163": " چا",
  "3164": "میٹھ",
  "3165": "منت",
  "3166": " کھا کر ",
  "3167": "شہزادی ",
  "3168": "گھبرا",
  "3169": "باور",
  "3170": "وہ دونوں ",
  "3171": "انتظام",
  "3172": "گو ",
  "3173": " باغ",
  "3174": "جوتے ",
  "3175": "اتر ",
  "3176": "بہتر ",
  "3177": "فیس",
  "3178": "بہادر ",
  "3179": "پری ",
  "3180": "چوہا ",
  "3181": " دھو",
  "3182": "پیار",
  "3183": "بھیج",
  "3184": "اپنے گھر",
  "3185": "مان نے ",
  "3186": "گی اور ",
  "3187": " آیا۔ ",
  "3188": " گھر میں ",
  "3189": "تے رہے۔ ",
  "3190": " جا ",
  "3191": "ائے،",
  "3192": " بچوں نے ",
  "3193": " ختم ",
  "3194": "گی",
  "3195": "اپنے کمرے میں ",
  "3196": " کے پاس",
  "3197": "ہے“۔ ",
  "3198": "ا کوئی ",
  "3199": "خواب ",
  "3200": "اپنی ماں",
  "3201": "ہاں سے ",
  "3202": " کھینچ",
  "3203": "نے لگا تو ",
  "3204": "لو،",
  "3205": "اندر",
  "3206": " درواز",
  "3207": " دادا ",
  "3208": "جھون",
  "3209": "مئ",
  "3210": "آس پ",
  "3211": "دیکھ بھال",
  "3212": "بت سے ",
  "3213": " ”مجھے ",
  "3214": "آپ سے ",
  "3215": "ایک درخت",
  "3216": "ے کے پاس ",
  "3217": " کیا تو ",
  "3218": " جلد ہی ",
  "3219": " دور ",
  "3220": " بچہ ",
  "3221": "طرف سے ",
  "3222": "چلتے ",
  "3223": "خوشبو ",
  "3224": " دوپہ",
  "3225": "بہت سارے ",
  "3226": " لیکن وہ ",
  "3227": "بتایا ",
  "3228": " امی جان",
  "3229": "ثاب",
  "3230": " بیچ",
  "3231": "صبر",
  "3232": " پھر اس نے ",
  "3233": "تیار",
  "3234": "دن ",
  "3235": " چکے ",
  "3236": "تے ہوئے ک",
  "3237": "نسپل ",
  "3238": "گھنٹی ",
  "3239": "احسان",
  "3240": " پیارے بچو! ",
  "3241": "خدا",
  "3242": "ی کوئی ",
  "3243": " کرنے سے ",
  "3244": "قبول",
  "3245": " کو اپنی ",
  "3246": "دادا جان",
  "3247": "جمی",
  "3248": "اپنا",
  "3249": "عام",
  "3250": "ایک بار ",
  "3251": "چی خا",
  "3252": "وطن",
  "3253": " کے مطابق",
  "3254": "وڑے ",
  "3255": "مہی",
  "3256": " روپے ",
  "3257": " درخت ",
  "3258": "سلس",
  "3259": "آیا تھا۔ ",
  "3260": " بتا ",
  "3261": "کے سے ",
  "3262": "دشمن",
  "3263": "تاج",
  "3264": "شدید",
  "3265": "یاد رکھ",
  "3266": "م م",
  "3267": "جائیں گے۔ ",
  "3268": "نانچہ ",
  "3269": " دل",
  "3270": " سے کہا:”",
  "3271": "غلطی ",
  "3272": "حالت ",
  "3273": "یہ ہے کہ ",
  "3274": " لیا اور ",
  "3275": "تے ہو،",
  "3276": "تازہ ",
  "3277": "ا دی۔ ",
  "3278": " کوئی ک",
  "3279": "اس کے پیچھے ",
  "3280": "زور زور سے ",
  "3281": "دریا",
  "3282": " جی",
  "3283": "میرے ساتھ",
  "3284": " آواز",
  "3285": "چٹ",
  "3286": "آواز میں ",
  "3287": "تے ہوئے بولا۔ ",
  "3288": "دانہ ",
  "3289": "لاکھ",
  "3290": " گئیں۔ ",
  "3291": "ہوا",
  "3292": "مئن",
  "3293": "ان کے لئے ",
  "3294": "د گرد",
  "3295": "ہف",
  "3296": " جبکہ ",
  "3297": "تسلی ",
  "3298": "مشکل سے ",
  "3299": "اڑ کر ",
  "3300": "بادشاہ سلامت",
  "3301": "ہو رہی ",
  "3302": "سایہ ",
  "3303": "بٹ",
  "3304": " کے کنارے ",
  "3305": "ہوم ورک",
  "3306": "گزار ",
  "3307": "ارک",
  "3308": "ناراض",
  "3309": " لمح",
  "3310": "بیٹی ",
  "3311": "ایک ا",
  "3312": "جی! ",
  "3313": "اب وہ ",
  "3314": "برد",
  "3315": "تقریبا ",
  "3316": "بھلا ",
  "3317": "بچوں کے ساتھ",
  "3318": "آئے تو ",
  "3319": "لط",
  "3320": " آگ",
  "3321": "جانوروں کو ",
  "3322": "ہمد",
  "3323": "نمبر ",
  "3324": "اگر",
  "3325": " کیوں",
  "3326": " زینب ",
  "3327": "چول",
  "3328": "پریشانی ",
  "3329": "تھیں اور ",
  "3330": " اللہ تع",
  "3331": "حض",
  "3332": "ی کی",
  "3333": "پھر بھی ",
  "3334": ") ",
  "3335": "ت،",
  "3336": " بہا",
  "3337": "تی میں ",
  "3338": "قاف",
  "3339": "مسکرا کر ",
  "3340": "بلو",
  "3341": "تصو",
  "3342": "آٹھ",
  "3343": "شامل",
  "3344": "چھلانگ لگ",
  "3345": "دادی ",
  "3346": " بج",
  "3347": " کھیت",
  "3348": "یسر ",
  "3349": "غذ",
  "3350": " بندر ",
  "3351": "ثاق",
  "3352": "صفدر ",
  "3353": "یہاں",
  "3354": "سکھ",
  "3355": "خلو",
  "3356": "اور کچھ",
  "3357": "نے کا فیصلہ ک",
  "3358": "سیدھا ",
  "3359": " کا کوئی ",
  "3360": "تو کیا ",
  "3361": " اب میں ",
  "3362": "سٹ",
  "3363": "میں تمہیں ",
  "3364": "ہر چیز",
  "3365": "  کیا ",
  "3366": "موبائل ",
  "3367": " کرتے ہیں۔ ",
  "3368": " نہیں ہو",
  "3369": "اتی ",
  "3370": "مچھلی ",
  "3371": "دروازہ ",
  "3372": "دیکھتے ",
  "3373": "عجیب ",
  "3374": " آ کر ",
  "3375": "ے ہوئے تھے۔ ",
  "3376": "غیرہ ",
  "3377": "ارو",
  "3378": " بھول",
  "3379": "عداد",
  "3380": "چونچ",
  "3381": " کھلا ",
  "3382": " پھر",
  "3383": " کیے ",
  "3384": " کر کہا۔ ",
  "3385": " ماہ ",
  "3386": "رکھے ",
  "3387": " گزر ",
  "3388": "آنکھوں میں آنسو ",
  "3389": "سر جھک",
  "3390": "رع",
  "3391": "کھانا ",
  "3392": "پانی میں ",
  "3393": " وہی ",
  "3394": "ذکر ",
  "3395": "خدمت",
  "3396": "پہچان",
  "3397": "میں کچھ",
  "3398": " کیا تھا۔ ",
  "3399": "گود میں ",
  "3400": "ے کام",
  "3401": "چلی گئی۔ ",
  "3402": "رہے تھے اور ",
  "3403": " تھے،",
  "3404": "یج",
  "3405": "خاتون",
  "3406": " گیا،",
  "3407": "آرام",
  "3408": "مٹی ",
  "3409": " تمام ",
  "3410": "آباد",
  "3411": "شاء",
  "3412": "پہنچ کر ",
  "3413": "بات پر ",
  "3414": " اس نے ک",
  "3415": "خز",
  "3416": "درخت کی ",
  "3417": "لب ",
  "3418": " رات کو ",
  "3419": "ہ کچھ",
  "3420": "ہزار ",
  "3421": "سب کی ",
  "3422": " کھانے کی ",
  "3423": "دک",
  "3424": "سنبھال",
  "3425": "پا ",
  "3426": "ئی",
  "3427": " اشرف",
  "3428": "جبکہ ",
  "3429": " باقی ",
  "3430": " کود",
  "3431": "نوید",
  "3432": " اص",
  "3433": "لفظ",
  "3434": " میڈ",
  "3435": "اپی ",
  "3436": "قطر",
  "3437": "یہ سب ",
  "3438": "ستارے ",
  "3439": "لیکن وہ ",
  "3440": "نین",
  "3441": " الد",
  "3442": " الدین",
  "3443": "پنکھ",
  "3444": " بڑھیا ",
  "3445": "عدیل",
  "3446": " پک",
  "3447": " ماسٹر ",
  "3448": "شامل ",
  "3449": "لیاں ",
  "3450": "قدر",
  "3451": "ماحول",
  "3452": "بھرا ",
  "3453": "پکار",
  "3454": "اطمین",
  "3455": "میز پر ",
  "3456": " چار ",
  "3457": " گزر",
  "3458": "تا ہوں کہ ",
  "3459": "ت بھی ",
  "3460": "غرض",
  "3461": "لین",
  "3462": " مانگ",
  "3463": "کام ",
  "3464": "بار بار ",
  "3465": "افسوس",
  "3466": " انہیں ",
  "3467": "تا تھا ",
  "3468": "اس وقت",
  "3469": "لاؤ",
  "3470": " کہا:”",
  "3471": " ہیں ",
  "3472": " کھانے پی",
  "3473": " پوچھ",
  "3474": "تی ہوں ",
  "3475": " لہذا ",
  "3476": "رحمت ",
  "3477": " کرو ",
  "3478": "ب کے ",
  "3479": "بچوں کے ",
  "3480": "تنے ",
  "3481": " کرنے لگا۔ ",
  "3482": "جیب سے ",
  "3483": "پھٹ",
  "3484": " ہوا۔ ",
  "3485": "ی کے پاس ",
  "3486": "ان کے پاس ",
  "3487": "بھر کر ",
  "3488": " بدل",
  "3489": "انے میں ",
  "3490": "فرق",
  "3491": "ماج",
  "3492": " وقت",
  "3493": "نیا ",
  "3494": " جائے۔ ",
  "3495": "گھر والے ",
  "3496": "زیر ",
  "3497": "رام سے ",
  "3498": " لی۔ ",
  "3499": "رہ گیا۔ ",
  "3500": " یہ سوچ کر ",
  "3501": "ادر ",
  "3502": "ملازم ",
  "3503": "ہ کسی ",
  "3504": "کل ",
  "3505": "ٹی وی ",
  "3506": "یا کا ",
  "3507": " دی ",
  "3508": "جلدی جلدی ",
  "3509": "کہا۔ ",
  "3510": "پیدا ",
  "3511": " کرتا ہوں۔ ",
  "3512": "آ گیا ",
  "3513": " گئی تھی۔ ",
  "3514": " میاں ",
  "3515": " اٹھا",
  "3516": "اللہ تعالی ",
  "3517": " ”اچھا ",
  "3518": "جھٹ",
  "3519": " سکول",
  "3520": "ات سے ",
  "3521": "ذر",
  "3522": "بھرو",
  "3523": "سے کہا کہ ",
  "3524": "ٹیچ",
  "3525": " میں رکھ",
  "3526": "ندھ",
  "3527": "بے چین",
  "3528": "ہ کر کے ",
  "3529": "ے کچھ",
  "3530": "تیر",
  "3531": " گاؤں میں ",
  "3532": "جاؤں گا۔ ",
  "3533": "تم مجھے ",
  "3534": " سب سے ",
  "3535": " اسی طرح",
  "3536": "حالات",
  "3537": "بھری ",
  "3538": " امیر ",
  "3539": "بات ہے ",
  "3540": " ہے اور ",
  "3541": " چونکہ ",
  "3542": "خلاف",
  "3543": "نے لگا کہ ",
  "3544": "میرے پاس ",
  "3545": " کر لیا ",
  "3546": "صور",
  "3547": "مانو ",
  "3548": "پاکستان",
  "3549": "نے کے ساتھ",
  "3550": "دراز",
  "3551": " بہادر ",
  "3552": "یت میں ",
  "3553": "تبدیل",
  "3554": "شاہی ",
  "3555": " فاخت",
  "3556": "چیل",
  "3557": "میں تو ",
  "3558": "گیند",
  "3559": "یہ کو ",
  "3560": "اکٹھ",
  "3561": " مانو ",
  "3562": "بولا،",
  "3563": " دان",
  "3564": "اسی طرح",
  "3565": "لہاڑا ",
  "3566": "ادوگر ",
  "3567": "صیف",
  "3568": " شیراز",
  "3569": "حلو",
  "3570": "نہیں تھی۔ ",
  "3571": "انج",
  "3572": "لے پر ",
  "3573": "انھوں ",
  "3574": "لیا اور ",
  "3575": "قرار ",
  "3576": "می کو ",
  "3577": "ہوئے۔ ",
  "3578": " کر دیا اور ",
  "3579": "بیٹھ گیا۔ ",
  "3580": "رقم",
  "3581": "ڈاکٹ",
  "3582": "آ رہا ",
  "3583": "توبہ",
  "3584": "انکہ ",
  "3585": "گوشت ",
  "3586": "پہنچا۔ ",
  "3587": "بٹھ",
  "3588": "ناز",
  "3589": "ہ کوئی ",
  "3590": " کھلا",
  "3591": "ے میں",
  "3592": " کھانا کھا",
  "3593": " موجود",
  "3594": "شو",
  "3595": "ئی تو ",
  "3596": "فارغ",
  "3597": " مٹھ",
  "3598": "ہوا تو ",
  "3599": "بھیڑ",
  "3600": "جائے،",
  "3601": " اس دن",
  "3602": "ائے اور ",
  "3603": "بے ہوش",
  "3604": " شاید",
  "3605": " پانی ",
  "3606": "کسی ",
  "3607": "بھوکا ",
  "3608": " تب",
  "3609": "بتایا:”",
  "3610": "ا کیا اور ",
  "3611": "چڑیا کو ",
  "3612": "لکھا ",
  "3613": "اپنے والدین",
  "3614": " بلی",
  "3615": " خرگوش",
  "3616": " مجھ سے ",
  "3617": "انتقال",
  "3618": "ی کہانی ",
  "3619": " مین",
  "3620": "غی",
  "3621": " گئے تھے۔ ",
  "3622": "مشورہ ",
  "3623": "لوگوں کی ",
  "3624": " ام",
  "3625": " میں تمہیں ",
  "3626": " ان کو ",
  "3627": "اولاد",
  "3628": "ہا”",
  "3629": " چیز",
  "3630": "آنکھیں بند",
  "3631": "برابر ",
  "3632": "سر ہلا",
  "3633": " کہنا ",
  "3634": "رہے ہو",
  "3635": " لڑک",
  "3636": " جانور",
  "3637": " تو",
  "3638": "بنائی ",
  "3639": "ئیں ",
  "3640": " شام کو ",
  "3641": "ذریعے ",
  "3642": "ہاز",
  "3643": "تم کو ",
  "3644": "یت سے ",
  "3645": " سب کو ",
  "3646": " لوگوں نے ",
  "3647": "گئے تھے۔ ",
  "3648": "ی کیا ",
  "3649": "آدھ",
  "3650": "عہد",
  "3651": "باورچی خا",
  "3652": " مختلف",
  "3653": "لطف",
  "3654": "فٹ",
  "3655": " مل کر ",
  "3656": "قاض",
  "3657": "انکار",
  "3658": " قسم",
  "3659": "دیا کہ ",
  "3660": "رمض",
  "3661": " دیکھا ",
  "3662": "یم کے ",
  "3663": "من نے ",
  "3664": " ٹھیک",
  "3665": "شریف",
  "3666": "افط",
  "3667": "زو",
  "3668": "مما",
  "3669": "وٴ",
  "3670": "چوہوں",
  "3671": "اکلیٹ",
  "3672": "عادل",
  "3673": "مارا ",
  "3674": "بتائے ",
  "3675": " کیوں نہیں ",
  "3676": "آئے اور ",
  "3677": "پور ",
  "3678": "می نے ",
  "3679": "ملاق",
  "3680": "نکل کر ",
  "3681": " ری",
  "3682": "ت نے ",
  "3683": " تمہاری ",
  "3684": " مال",
  "3685": " لگی ",
  "3686": "انتظار کر",
  "3687": "لگی ",
  "3688": "اسمارٹ فون",
  "3689": " کمزور ",
  "3690": "وں گا اور ",
  "3691": "ابو کو ",
  "3692": "اللہ کا ",
  "3693": " سب نے ",
  "3694": " مگر",
  "3695": "اندھیرا ",
  "3696": "الٹ",
  "3697": " اگلی ",
  "3698": "زور دار ",
  "3699": "نظر آیا۔ ",
  "3700": " رہی ہے۔ ",
  "3701": "باش",
  "3702": "یں گی۔ ",
  "3703": "طاقتور ",
  "3704": "ہوں گے۔ ",
  "3705": "متعلق",
  "3706": "اہی ",
  "3707": "یاں بھی ",
  "3708": "امی سے ",
  "3709": "ٹائ",
  "3710": "خت سے ",
  "3711": "آیا،",
  "3712": "وزیر ",
  "3713": "بیٹے کو ",
  "3714": " کیا کہ ",
  "3715": " دونوں کو ",
  "3716": "سب نے ",
  "3717": " میں کوئی ",
  "3718": "پتا چل",
  "3719": "ہمار",
  "3720": "مناس",
  "3721": "یہ کیا ",
  "3722": "آوازیں ",
  "3723": "اب تک",
  "3724": "تے تھے ",
  "3725": "آتے ہی ",
  "3726": " جائے گا۔ ",
  "3727": "تا دیکھ کر ",
  "3728": "فکر",
  "3729": "چھپ کر ",
  "3730": "ایک بڑے ",
  "3731": "بہترین",
  "3732": " مزدور",
  "3733": "پھنس",
  "3734": "ہ اور ",
  "3735": "ذہین",
  "3736": "ہو اور ",
  "3737": "ہدری ",
  "3738": " اس نے اپنے ",
  "3739": "علاوہ ",
  "3740": "خشک",
  "3741": " سام",
  "3742": "یے ",
  "3743": "وہ اپنی ",
  "3744": "ڈنڈ",
  "3745": "ناں",
  "3746": "وہ بہت ",
  "3747": " تھی،",
  "3748": "جھنڈ",
  "3749": " کرا",
  "3750": " لڑکے نے ",
  "3751": " اس بار ",
  "3752": "جب بھی ",
  "3753": "یا میں ",
  "3754": "رخص",
  "3755": "تبدی",
  "3756": "پہنچ گیا۔ ",
  "3757": " شخص",
  "3758": "پچ",
  "3759": " چوہا ",
  "3760": "جائزہ ",
  "3761": " کش",
  "3762": "ممکن",
  "3763": "یاض",
  "3764": "پیوٹ",
  "3765": "آنا ",
  "3766": "مایوس",
  "3767": " رق",
  "3768": "لاق",
  "3769": "علی نے ",
  "3770": "کھی ",
  "3771": "روٹی ",
  "3772": "ر اور ",
  "3773": "گھور",
  "3774": " کی تھی۔ ",
  "3775": "چوکید",
  "3776": "طوف",
  "3777": "لوگوں سے ",
  "3778": "نے لگی ",
  "3779": " مکمل",
  "3780": "فقیر",
  "3781": "لی سے ",
  "3782": "درخو",
  "3783": " جل",
  "3784": "تجویز",
  "3785": "پہلے ک",
  "3786": "چھوٹا سا ",
  "3787": "بھی تو ",
  "3788": " بہتر ",
  "3789": "شور",
  "3790": "ڑپ",
  "3791": "بلو ",
  "3792": "جا رہی ",
  "3793": "و گے۔ ",
  "3794": "مینڈک",
  "3795": "سست",
  "3796": "ارف",
  "3797": " شہد",
  "3798": "...! ",
  "3799": "روفیسر ",
  "3800": " فہد",
  "3801": "اسعد",
  "3802": "احسن",
  "3803": "لی تھی۔ ",
  "3804": " ہف",
  "3805": "ایک بڑا ",
  "3806": "ذمہ ",
  "3807": "جھل",
  "3808": "لیے ",
  "3809": "دیا،",
  "3810": "، ",
  "3811": " سے باہر ",
  "3812": "قریب ہی ",
  "3813": " “ یہ کہہ کر ",
  "3814": "قط",
  "3815": "چوری ",
  "3816": "ضرورت",
  "3817": "رہی۔ ",
  "3818": "بات نہیں ",
  "3819": "پکا ",
  "3820": " یہ دیکھ کر ",
  "3821": "ہاں! ",
  "3822": "رہا تھا ",
  "3823": "پتا چلا کہ ",
  "3824": "پھر وہ ",
  "3825": " آپ کو ",
  "3826": "آسانی سے ",
  "3827": "باتیں سن",
  "3828": "امی کی ",
  "3829": "انتہائی ",
  "3830": "ٹھنڈی ",
  "3831": "پرس",
  "3832": "دیکھا،",
  "3833": " ”تم ",
  "3834": "فرمائش",
  "3835": "نہ تھا۔ ",
  "3836": "ار کی ",
  "3837": " کہانی ",
  "3838": " ہیں،",
  "3839": "تھیں کہ ",
  "3840": " بری ",
  "3841": "دروازہ کھول",
  "3842": "ہاتھ رکھ",
  "3843": "چھٹیاں ",
  "3844": " شام ",
  "3845": " کہ وہ ",
  "3846": "پودے ",
  "3847": " فض",
  "3848": "رابط",
  "3849": "لاع",
  "3850": "گا تو ",
  "3851": "شخص نے ",
  "3852": "اس کی ک",
  "3853": "رحمت",
  "3854": " کریں۔ ",
  "3855": "سلوک",
  "3856": "حکو",
  "3857": "فرو",
  "3858": "کنارے ",
  "3859": " کسی نے ",
  "3860": "امی کو ",
  "3861": "وم ",
  "3862": "گرمی",
  "3863": " عید",
  "3864": "صاحب کے ",
  "3865": " بچوں کی ",
  "3866": " نہیں ہے۔ ",
  "3867": " دکان",
  "3868": "جیسی ",
  "3869": "سرخ",
  "3870": " اڑا",
  "3871": "منہ سے ",
  "3872": "عض",
  "3873": " پاک",
  "3874": "ریز",
  "3875": "یداد",
  "3876": "تا ہوں ",
  "3877": "رہا تھا،",
  "3878": "چالاک",
  "3879": "ظالم ",
  "3880": "ائی کا ",
  "3881": "معلوم ہوا کہ ",
  "3882": "ئیں اور ",
  "3883": " رہی تھیں۔ ",
  "3884": " مرتبہ ",
  "3885": "جو بھی ",
  "3886": " کرتے تھے۔ ",
  "3887": "خاک",
  "3888": "سی کی ",
  "3889": " کتنی ",
  "3890": "ہ۔ ",
  "3891": " دونوں نے ",
  "3892": " کام کر",
  "3893": " تمام",
  "3894": "چاہیے،",
  "3895": "بھی کچھ",
  "3896": "جہاز",
  "3897": "خصوص",
  "3898": "فیکٹ",
  "3899": "بنے ",
  "3900": " بد",
  "3901": "چاروں طرف",
  "3902": "امن",
  "3903": "واہ ",
  "3904": " (جاری ",
  "3905": " (جاری ہے",
  "3906": " (جاری ہے) ",
  "3907": " بادشاہ سلام",
  "3908": "ہنسی ",
  "3909": " گاؤں کے ",
  "3910": "خدا ",
  "3911": "تماد",
  "3912": "ی کا احساس ",
  "3913": "گاؤں وال",
  "3914": "گھونسل",
  "3915": "گلی",
  "3916": "رہنا ",
  "3917": " کے بچے ",
  "3918": "ینڈ",
  "3919": " اس وقت ",
  "3920": "فل",
  "3921": "مچھلی",
  "3922": "گرہ ",
  "3923": "ے....",
  "3924": "شکری",
  "3925": "تو بہت ",
  "3926": "مزے سے ",
  "3927": "وارث",
  "3928": " کی طرف روانہ ",
  "3929": "وپھ",
  "3930": " سون",
  "3931": " ہوں۔ ",
  "3932": "نے میں مصروف",
  "3933": "گھر پہنچ",
  "3934": "بیگم ",
  "3935": " سیٹھ",
  "3936": "فہد",
  "3937": "گڑھ",
  "3938": " پھر وہ ",
  "3939": "ج میں ",
  "3940": "بھرپور ",
  "3941": "ت کے لئے ",
  "3942": " یا ",
  "3943": "ات میں ",
  "3944": " وہ اپنی ",
  "3945": "بولے۔ ",
  "3946": "بیٹھ گئے۔ ",
  "3947": "سخت",
  "3948": "تے کی ",
  "3949": " کی طرف بڑھ",
  "3950": " اندر ",
  "3951": "گھڑی ",
  "3952": "سنہری ",
  "3953": "اریخ",
  "3954": "گیم",
  "3955": "تا ہوں",
  "3956": "ے“",
  "3957": "اس بار ",
  "3958": "جاتے ",
  "3959": " کسی کی ",
  "3960": "سلام ",
  "3961": "علیک",
  "3962": "چھڑی ",
  "3963": "تی کہ ",
  "3964": "درخت پر چڑھ",
  "3965": "ہوتا ہے،",
  "3966": "مری",
  "3967": "چھوٹے چھوٹے ",
  "3968": "پا کر ",
  "3969": "اراد",
  "3970": "چہرہ ",
  "3971": "یہاں سے ",
  "3972": "دولت ",
  "3973": " معلو",
  "3974": " تینوں ",
  "3975": " کھلی ",
  "3976": "ننھا ",
  "3977": " کیا:”",
  "3978": "بولیں:”",
  "3979": " اگر تم ",
  "3980": " اوپر ",
  "3981": "رکھا تھا۔ ",
  "3982": "ارد گرد",
  "3983": "نے کے بجائے ",
  "3984": "موبائل فون",
  "3985": " سا ",
  "3986": "وعدہ",
  "3987": "وں کے سامنے ",
  "3988": "صورت ",
  "3989": "رہے تھے،",
  "3990": "فور",
  "3991": " کرے ",
  "3992": "طوطے کو ",
  "3993": "پرانے ",
  "3994": "دیا اور ",
  "3995": " کر اپنے ",
  "3996": "زیر",
  "3997": "خبر",
  "3998": "اور کہنے لگ",
  "3999": "بچوں کا ",
  "4000": "ریر ",
  "4001": "پرندہ ",
  "4002": " پیر ",
  "4003": "تھی",
  "4004": " ہو گیا تھا۔ ",
  "4005": " اس پر ",
  "4006": "چھڑ",
  "4007": "اعت",
  "4008": "مم",
  "4009": "ی کی۔ ",
  "4010": " سن کر ",
  "4011": " کتنا ",
  "4012": "بلی کو ",
  "4013": " کھول کر ",
  "4014": "تابیں ",
  "4015": "ٹکڑا ",
  "4016": "ور کے ",
  "4017": "تی ہیں ",
  "4018": " بھر",
  "4019": "اغذ",
  "4020": " جس میں ",
  "4021": "صرف ایک",
  "4022": "تی ہیں،",
  "4023": "رواہ",
  "4024": "ردی",
  "4025": " کھود",
  "4026": "سہیل",
  "4027": "ایک بہت ",
  "4028": "ی کچھ",
  "4029": "بھلا",
  "4030": "جو کچھ",
  "4031": "اسے اپنے ",
  "4032": "نکلا ",
  "4033": " جنگل کے ",
  "4034": "نصیحت",
  "4035": "ہال",
  "4036": "ہاڑی ",
  "4037": "چور ",
  "4038": "اناج",
  "4039": "لیز",
  "4040": "طبیعت ",
  "4041": " کی جانب ",
  "4042": "نف",
  "4043": "ام پر ",
  "4044": " “وہ ",
  "4045": " والے ",
  "4046": " سارا ",
  "4047": "گول",
  "4048": "بغیر",
  "4049": "منٹ",
  "4050": "فطر",
  "4051": " ہو گئی ",
  "4052": "فقیر ",
  "4053": "مسئلہ ",
  "4054": "نا اور ",
  "4055": "تھا،لیکن",
  "4056": " کھا ل",
  "4057": "تیاری",
  "4058": " تیس",
  "4059": " کھیلنے ",
  "4060": " کی بات سن کر ",
  "4061": "گاہک",
  "4062": "گرمی ",
  "4063": "سوچ میں ",
  "4064": "اتفاق",
  "4065": "نمک",
  "4066": " چیونٹی ",
  "4067": " تھا اور ",
  "4068": "گھاس ",
  "4069": "سالگرہ ",
  "4070": "نقل",
  "4071": "ا لی",
  "4072": "اور اس کے ",
  "4073": " چاند",
  "4074": "دو دن",
  "4075": "نویں",
  "4076": " جادوگر",
  "4077": "گلف",
  "4078": " ریچھ",
  "4079": " کنٹھ",
  "4080": "ہاش",
  "4081": "آپ لوگ",
  "4082": "آ گیا اور ",
  "4083": "طالب عل",
  "4084": " سمند",
  "4085": "ہوتا ہے ",
  "4086": "نے کا فیصلہ کیا۔ ",
  "4087": "مشہور ",
  "4088": "اسٹی",
  "4089": " بھائی! ",
  "4090": "جانے کے بعد",
  "4091": " کروں گا۔ ",
  "4092": "ہو گئے اور ",
  "4093": "دیکھتے ہی ",
  "4094": " نم",
  "4095": "اب بھی ",
  "4096": "تمہیں",
  "4097": "بچوں سے ",
  "4098": " جاؤں ",
  "4099": "پانی سے ",
  "4100": "سمجھا ",
  "4101": "رہا اور ",
  "4102": "صورت",
  "4103": "چھا ",
  "4104": "بہت ہی ",
  "4105": " رات ",
  "4106": "ہق",
  "4107": " ڈال",
  "4108": "سوچا،",
  "4109": " ناک",
  "4110": "واقعہ ",
  "4111": "امت ",
  "4112": " اندھ",
  "4113": "شاباش",
  "4114": "سہیلی",
  "4115": "تو یہ ",
  "4116": "جگہ سے ",
  "4117": " اظ",
  "4118": "گھٹ",
  "4119": " ان میں ",
  "4120": "دیکھ رہا تھا۔ ",
  "4121": "راج",
  "4122": "مشکل ",
  "4123": "پچھلے ",
  "4124": "آزادی ",
  "4125": "نے میں ک",
  "4126": "اختیار ",
  "4127": " گے۔ ",
  "4128": "دے گا۔ ",
  "4129": "ہر وقت",
  "4130": "عو",
  "4131": "لگا کر ",
  "4132": "جاتا ",
  "4133": "وہ اس ",
  "4134": "بات بت",
  "4135": "مڑ کر ",
  "4136": "جتنا ",
  "4137": " آپ نے ",
  "4138": "وا",
  "4139": "وہ کچھ",
  "4140": "ے کیا ",
  "4141": "قربانی ",
  "4142": "ندرہ ",
  "4143": "ہاتھ پھ",
  "4144": " ساری ",
  "4145": "خطرہ ",
  "4146": "حس",
  "4147": "نگاہ ",
  "4148": "برے ",
  "4149": " کی آنکھ",
  "4150": " ط",
  "4151": "ونی",
  "4152": "پیسے ک",
  "4153": " لیا تھا۔ ",
  "4154": "نہیں کہ ",
  "4155": "چاہ ",
  "4156": "سی سے ",
  "4157": "روپے کا ",
  "4158": " کیا ہے۔ ",
  "4159": "بازار ",
  "4160": "گئے تو ",
  "4161": " برا ",
  "4162": "نے ہی ",
  "4163": "عمد",
  "4164": "نے لگا،",
  "4165": " ہوئی۔ ",
  "4166": "چھٹی ",
  "4167": "آتی ",
  "4168": "مطلب ",
  "4169": "عائشہ ",
  "4170": " مش",
  "4171": "ائی دی",
  "4172": "ہوا ہے۔ ",
  "4173": "تے کہ ",
  "4174": "بوجھ",
  "4175": "قرض",
  "4176": "ہر طرف",
  "4177": "گیا ہے۔ ",
  "4178": "عق",
  "4179": "پوچھا ",
  "4180": "ا دیا ",
  "4181": "خاموشی سے ",
  "4182": " اس دوران",
  "4183": "ا کام ",
  "4184": " میں ڈال",
  "4185": "یوں نے ",
  "4186": "رہے۔ ",
  "4187": "ار کے ",
  "4188": "سبھی ",
  "4189": "طریقے سے ",
  "4190": " کرک",
  "4191": " ”بیٹا! ",
  "4192": "عام ",
  "4193": " شہزادی ",
  "4194": "کمرے میں ",
  "4195": "تربی",
  "4196": "ن نے ",
  "4197": "گھوم",
  "4198": "حالت میں ",
  "4199": "میا",
  "4200": "دوا ",
  "4201": "نے کی آواز",
  "4202": "جگنو ",
  "4203": "حمزہ ",
  "4204": " آپ کے ",
  "4205": "مکمل",
  "4206": "یہ کی ",
  "4207": " برنگ",
  "4208": "ستار",
  "4209": " ایک م",
  "4210": "یل کے ",
  "4211": "محنت",
  "4212": "ا کلہاڑا ",
  "4213": "امہ اقبال",
  "4214": " مولا ",
  "4215": " مولا بخش",
  "4216": "زاق",
  "4217": "یل کنٹھ",
  "4218": "الب",
  "4219": "ڈھال",
  "4220": " تھے کہ ",
  "4221": "دل ہی ",
  "4222": " پھر بھی ",
  "4223": "لگائے ",
  "4224": " “ س",
  "4225": "نے کہا اور ",
  "4226": " پڑے۔ ",
  "4227": "ل کے ",
  "4228": "گیٹ",
  "4229": " گئے اور ",
  "4230": "ی کی طرف",
  "4231": "دوں گا۔ ",
  "4232": " انت",
  "4233": "تھا، لیکن",
  "4234": " ابو نے ",
  "4235": "امی ابو ",
  "4236": "دوسرے ک",
  "4237": "جیسا ",
  "4238": "اونچی ",
  "4239": "مجھ پر ",
  "4240": "اور کبھی ",
  "4241": " کھانے کو ",
  "4242": " لیں۔ ",
  "4243": "مصیبت",
  "4244": " کر لے ",
  "4245": "یوں کا ",
  "4246": "چرا ",
  "4247": "فید",
  "4248": "صد",
  "4249": "پاس رکھ",
  "4250": "مپ",
  "4251": "ہاتھوں سے ",
  "4252": "رہتا۔ ",
  "4253": "چاب",
  "4254": "بری طرح",
  "4255": "رار",
  "4256": " بوڑھے ",
  "4257": "ونی ",
  "4258": " جانا ",
  "4259": "اتار",
  "4260": "احساس ہوا کہ ",
  "4261": " اس وقت",
  "4262": " معلوم ",
  "4263": " بھو",
  "4264": " صاف",
  "4265": "تھر",
  "4266": "ہوا میں ",
  "4267": " لاکھ",
  "4268": "  تم ",
  "4269": "گڈ",
  "4270": "تعداد",
  "4271": "برگ",
  "4272": "ہڈ",
  "4273": " منہ ",
  "4274": "لاپ",
  "4275": "سردی ",
  "4276": "دیں۔ ",
  "4277": " ویسے ",
  "4278": " اپنے دوست",
  "4279": "پیال",
  "4280": "حید",
  "4281": "قابو ",
  "4282": " میں جان",
  "4283": "اطلاع",
  "4284": "جماعت ",
  "4285": "ہنگ",
  "4286": "تف",
  "4287": "مرض",
  "4288": "باغ میں ",
  "4289": "ے کی طرح",
  "4290": "بولا ”",
  "4291": "گار ",
  "4292": "ہ کس",
  "4293": "گئی،",
  "4294": "سیڑھ",
  "4295": "مناسب ",
  "4296": "اسکول جا",
  "4297": "دلچسپی ",
  "4298": "وں ک",
  "4299": "عبد",
  "4300": " آ گیا۔ ",
  "4301": " جاتا۔ ",
  "4302": "ہو گا،",
  "4303": "ہو گیا ہے۔ ",
  "4304": " جس کے ",
  "4305": "ہو گئی تھی۔ ",
  "4306": "امی جان",
  "4307": "صحت مند",
  "4308": "اہل",
  "4309": " صاحب کے ",
  "4310": "دھوپ",
  "4311": "ہونے کی وجہ سے ",
  "4312": "بات ہے۔ ",
  "4313": "جائیداد",
  "4314": "صبر ",
  "4315": "دے کر ",
  "4316": "جا رہا ہے۔ ",
  "4317": "سے کہا ",
  "4318": "اٹھایا اور ",
  "4319": "تجھ",
  "4320": "شیر کو ",
  "4321": " دو دن",
  "4322": "لائ",
  "4323": "بوڑھی ",
  "4324": " فر",
  "4325": "فرش",
  "4326": " آگے ",
  "4327": "سفر",
  "4328": "ہانی ",
  "4329": "نہ کسی ",
  "4330": "زبر",
  "4331": "گوار ",
  "4332": " تھے اور ",
  "4333": "مث",
  "4334": "حہ ",
  "4335": "لوگوں کے ",
  "4336": "شہر کے ",
  "4337": "نہایت ",
  "4338": " نہیں۔ ",
  "4339": "مسکرا ",
  "4340": "کام",
  "4341": "بینک",
  "4342": " لگا",
  "4343": " سے کچھ",
  "4344": " پورے ",
  "4345": "سارا دن",
  "4346": "وں کے درمیان",
  "4347": "ی کر کے ",
  "4348": "اس شخص",
  "4349": "اشرفیاں ",
  "4350": "دینا ",
  "4351": "اس بچ",
  "4352": "وٹھ",
  "4353": "بیر",
  "4354": "الو",
  "4355": "ایک بار پھر ",
  "4356": "ساتھ ہی ",
  "4357": "بچپن",
  "4358": "پیار کر",
  "4359": " صبح سویرے ",
  "4360": "جنبی ",
  "4361": " چار",
  "4362": "ہاتھی ",
  "4363": "چوٹ",
  "4364": "طاقت ",
  "4365": "حاض",
  "4366": "سڑک پر ",
  "4367": " نہیں تھا۔ ",
  "4368": " از",
  "4369": "بنایا ",
  "4370": "ینہ ",
  "4371": "سائل",
  "4372": " کرنی ",
  "4373": "تو کوئی ",
  "4374": "خیر ",
  "4375": " نے اپنے ",
  "4376": "لمحے ",
  "4377": "جھول",
  "4378": " ننھی ",
  "4379": "وسط",
  "4380": "جانب",
  "4381": "گفت",
  "4382": "امیا",
  "4383": " نکال کر ",
  "4384": " پسند",
  "4385": " اند",
  "4386": "سلسلہ ",
  "4387": "لڑکی ",
  "4388": " پیسے ",
  "4389": "سی ک",
  "4390": " اشار",
  "4391": "بی لومڑ",
  "4392": "بندر",
  "4393": "ڈھیر",
  "4394": "ثنا",
  "4395": "فرا",
  "4396": " کام میں ",
  "4397": "پروفیسر ",
  "4398": "محل میں ",
  "4399": " چوہ",
  "4400": "و بھ",
  "4401": " کھج",
  "4402": " اسعد",
  "4403": "دغ",
  "4404": "ذمے داری ",
  "4405": "پہنچ گئے۔ ",
  "4406": "مدد سے ",
  "4407": " کر لی۔ ",
  "4408": "وں کو بھی ",
  "4409": "صاحب سے ",
  "4410": " تھی کہ ",
  "4411": "حاصل ",
  "4412": "دیا تھا۔ ",
  "4413": "جسس",
  "4414": "سفر ",
  "4415": " تک پہنچ",
  "4416": "زندگی کا ",
  "4417": "وڑھ",
  "4418": "جناب",
  "4419": "مسافر",
  "4420": "اللہ تعال",
  "4421": "دے دی۔ ",
  "4422": "نماز",
  "4423": "ئیں،",
  "4424": "تا رہا،",
  "4425": "اٹھ کر ",
  "4426": "ابو! ",
  "4427": "یں گے تو ",
  "4428": "تے سے ",
  "4429": "ذائق",
  "4430": "ب کی ",
  "4431": "بلی کے ",
  "4432": "قابل",
  "4433": " بوڑھا ",
  "4434": "بھوت ",
  "4435": "یہ سب",
  "4436": " نہیں،",
  "4437": "معصوم ",
  "4438": " بیٹا! ",
  "4439": "جاتی۔ ",
  "4440": " کوے ",
  "4441": "لگے ",
  "4442": "ہ! ",
  "4443": "جائے گی۔ ",
  "4444": "مخاطب",
  "4445": " مگر وہ ",
  "4446": "پکٹر ",
  "4447": "پلا",
  "4448": " ”میرے ",
  "4449": "دعائیں ",
  "4450": " رکھا ",
  "4451": " ہو سک",
  "4452": "سارا ماج",
  "4453": " کرتا۔ ",
  "4454": "ایک درخت کے ",
  "4455": " یاد",
  "4456": " کروا",
  "4457": "دیں گے۔ ",
  "4458": "نہ جانے ک",
  "4459": "و گے تو ",
  "4460": " ایک دن وہ ",
  "4461": "تو کچھ",
  "4462": "لپٹ",
  "4463": "گئی تھی۔ ",
  "4464": " آئی ",
  "4465": "ایک دوسرے ",
  "4466": "ناشت",
  "4467": "گھنٹ",
  "4468": "واپس لوٹ",
  "4469": " بولا:”",
  "4470": "یاں ب",
  "4471": " ہمارا ",
  "4472": "ہیر",
  "4473": "نہ کوئی ",
  "4474": "پیر ",
  "4475": " پیر جی ",
  "4476": "چند دن",
  "4477": "بل ",
  "4478": "بہت شوق",
  "4479": "نہیں ہے،",
  "4480": "خاطر ",
  "4481": "ہے وہ ",
  "4482": " کرنے میں ",
  "4483": "ملا ",
  "4484": "محبت ",
  "4485": " آج بھی ",
  "4486": "ائی ک",
  "4487": "پر ک",
  "4488": "شام کو ",
  "4489": "ؤں گا۔ ",
  "4490": " واقع",
  "4491": "سلمان",
  "4492": " تیم",
  "4493": "ایس",
  "4494": " کر رہے ہیں۔ ",
  "4495": "نواز",
  "4496": " کا مالک",
  "4497": "نے کہا،",
  "4498": "یہ دیکھ کر ",
  "4499": "مجبور ",
  "4500": "کہا کہ ",
  "4501": " نع",
  "4502": "ا کام",
  "4503": "نتیجہ ",
  "4504": "الفاظ",
  "4505": "شکریہ ادا کیا۔ ",
  "4506": "نا شروع کر دیا۔ ",
  "4507": "انی اور ",
  "4508": " کریں گے۔ ",
  "4509": " پولیس",
  "4510": "ات پر ",
  "4511": "نہیں ہو سک",
  "4512": "فصل",
  "4513": "سمیت ",
  "4514": " بیٹا ",
  "4515": "زینب کی ",
  "4516": " لی اور ",
  "4517": "صلاح",
  "4518": "فیل",
  "4519": "است ",
  "4520": "ریاض",
  "4521": " اللہ تعالی ",
  "4522": "محنت ",
  "4523": "آدمی نے ",
  "4524": " کھلونے ",
  "4525": "فرض",
  "4526": " وقت گزر",
  "4527": "منگ",
  "4528": "اعد",
  "4529": "جگہ پر ",
  "4530": "فاختہ ",
  "4531": "ی کے بعد",
  "4532": " اکثر ",
  "4533": "ر،",
  "4534": "ر سائیکل",
  "4535": " کیے۔ ",
  "4536": "جانوروں کی ",
  "4537": " کو اپنے ",
  "4538": "دے سک",
  "4539": "ٹھگ",
  "4540": "عادت",
  "4541": "خطرناک",
  "4542": "مہربان",
  "4543": "گویا ",
  "4544": "گھونسلے ",
  "4545": "ہم سے ",
  "4546": "ڈائ",
  "4547": " گرمی",
  "4548": "نظریں ",
  "4549": "تبا",
  "4550": " یعنی ",
  "4551": "مسکراتے ہوئے ",
  "4552": "دونوں نے ",
  "4553": "موبائل",
  "4554": " براؤ",
  "4555": "ابو کا ",
  "4556": "ہو؟“",
  "4557": " بتاؤ",
  "4558": " کی تلاش میں ",
  "4559": "علی کے ",
  "4560": "فوجی ",
  "4561": "رانی ",
  "4562": "چیونٹ",
  "4563": "غلطی کا احساس ",
  "4564": "اسد",
  "4565": "اداس ",
  "4566": "گزری ",
  "4567": "وعدہ ک",
  "4568": " عورت ",
  "4569": " کی مکھ",
  "4570": "سودا",
  "4571": "ماں کو ",
  "4572": " کاغذ",
  "4573": " قاس",
  "4574": "ہانیہ ",
  "4575": " شکاری ",
  "4576": " عاص",
  "4577": "فرح",
  "4578": " مہر",
  "4579": " جوک",
  "4580": "چراغ",
  "4581": "علامہ اقبال",
  "4582": "ائیاں ",
  "4583": " کلو ",
  "4584": "قزاق",
  "4585": "فرحان",
  "4586": " ابرا",
  "4587": "محمد",
  "4588": " کو کچھ",
  "4589": "دکھا",
  "4590": "راضی ",
  "4591": "تواز",
  "4592": "پکڑ لیا۔ ",
  "4593": " استعمال",
  "4594": "خلوق",
  "4595": "ے کھا",
  "4596": "ام کی ",
  "4597": " چنانچہ ",
  "4598": "ابو کی ",
  "4599": " کہتے ",
  "4600": "ونہی ",
  "4601": "پوچھا کہ ",
  "4602": " پید",
  "4603": "چشمہ ",
  "4604": "تے ہیں تو ",
  "4605": "پہلے سے ",
  "4606": "آف",
  "4607": "وں تک",
  "4608": "ہے“",
  "4609": "بھالو ",
  "4610": "سر! ",
  "4611": "شکار کر",
  "4612": " بھری ",
  "4613": "جاؤ۔ ",
  "4614": " ایک ن",
  "4615": "نش",
  "4616": "پیچھے سے ",
  "4617": " اس م",
  "4618": "بکری",
  "4619": "ایک پر",
  "4620": "وغیرہ ",
  "4621": " اپنے ک",
  "4622": " جگہ ",
  "4623": "شور م",
  "4624": "نے کی کوشش کی،",
  "4625": "بھی نہ ",
  "4626": "دب",
  "4627": "بیٹھے تھے۔ ",
  "4628": "پیٹ میں ",
  "4629": "سرد",
  "4630": " ہو۔ ",
  "4631": "پات",
  "4632": " جائیں گے۔ ",
  "4633": " ”وہ ",
  "4634": " نے پوچھا۔ ",
  "4635": "جا بیٹھ",
  "4636": " زندگی ",
  "4637": " کرتا تھا۔ ",
  "4638": "آنے والے ",
  "4639": " اللہ نے ",
  "4640": "گاڑی میں ",
  "4641": " کی باتیں ",
  "4642": "پانی پی",
  "4643": "پہلا ",
  "4644": "سونا ",
  "4645": "جمل",
  "4646": "ری سے ",
  "4647": " لی ",
  "4648": "ائی تو ",
  "4649": "اندر سے ",
  "4650": "ہو گیا اور ",
  "4651": "اندار ",
  "4652": " گیا تو ",
  "4653": " لکڑ",
  "4654": "اس کے بعد",
  "4655": "اسکول سے ",
  "4656": "ذی",
  "4657": "پھڑ",
  "4658": "ور کی ",
  "4659": " رہا تھا ",
  "4660": " ورنہ ",
  "4661": "موجود تھے۔ ",
  "4662": "ابھی تک",
  "4663": " عمر",
  "4664": "آتے ",
  "4665": "برا حال",
  "4666": " شاہ",
  "4667": "رہتی تھی۔ ",
  "4668": " کامی ",
  "4669": "فخر ",
  "4670": " اس کے والد",
  "4671": "بچوں نے ",
  "4672": "غیرہ",
  "4673": "فرمان",
  "4674": " کرتا اور ",
  "4675": "بہت سی ",
  "4676": "نوکری ",
  "4677": "معمولی ",
  "4678": "آج سے ",
  "4679": " کرتا ہے۔ ",
  "4680": " کما",
  "4681": " امجد",
  "4682": "ہو گئیں۔ ",
  "4683": "مزدور",
  "4684": "چم",
  "4685": "سوال کیا۔ ",
  "4686": "دیر سے ",
  "4687": "ذکر",
  "4688": "برداش",
  "4689": "ا بھی ",
  "4690": "ہر گز",
  "4691": "ایک خوبصورت ",
  "4692": "و گے ",
  "4693": " کھڑ",
  "4694": " آہستہ ",
  "4695": " اس کی نظر ",
  "4696": "اٹھا",
  "4697": "، لیکن",
  "4698": " اسی دوران",
  "4699": "بدتمیز",
  "4700": "قائم ",
  "4701": "ان اور ",
  "4702": "اقف",
  "4703": " عرص",
  "4704": "کئی ",
  "4705": " بہت خوش",
  "4706": "لوگوں نے ",
  "4707": "ہوئی،",
  "4708": "ب کا ",
  "4709": " کر کھا",
  "4710": "جب یہ ",
  "4711": "پیٹھ",
  "4712": " استاد",
  "4713": "سے کر",
  "4714": " اکمل",
  "4715": "نگران",
  "4716": "سب کے ",
  "4717": "ثر",
  "4718": "سبق س",
  "4719": "ئی بار ",
  "4720": "دیر بعد",
  "4721": " منٹ",
  "4722": " بابا",
  "4723": "ریک",
  "4724": "وہ کسی ",
  "4725": "بہن بھائی ",
  "4726": " کرنا شروع",
  "4727": "ہو گا",
  "4728": "جادوئی ",
  "4729": "حاضر ",
  "4730": "جام ",
  "4731": "نما ",
  "4732": " ہو گیا کہ ",
  "4733": " دیے۔ ",
  "4734": "انہ",
  "4735": "برباد",
  "4736": "جس پر ",
  "4737": "ہزاروں ",
  "4738": "طرف م",
  "4739": " ہوتا ہے۔ ",
  "4740": " کیوں نہ ",
  "4741": " امت",
  "4742": "اس نے اپنے ",
  "4743": " اسکول میں ",
  "4744": "آئے گا۔ ",
  "4745": "آئیں تو ",
  "4746": "وں گا ",
  "4747": "ب اور ",
  "4748": " انداز",
  "4749": "تیں،",
  "4750": "ب ہو",
  "4751": "آئی تو ",
  "4752": "درخت کے نیچے ",
  "4753": "  تم",
  "4754": "انھیں",
  "4755": " رمض",
  "4756": "ثناء",
  "4757": " چیتے ",
  "4758": "آسمان پر ",
  "4759": "سی کے ",
  "4760": "دیگر ",
  "4761": "جواب",
  "4762": "ا کا ",
  "4763": "قاس",
  "4764": " چکی تھی۔ ",
  "4765": "ہوئی تو ",
  "4766": " اصغ",
  "4767": "مقص",
  "4768": "چاکلیٹ",
  "4769": " ہانیہ ",
  "4770": "اطمہ ",
  "4771": " جگن",
  "4772": " جادوگر ",
  "4773": "توصیف",
  "4774": "طوطے ",
  "4775": "ہاتھی کے ",
  "4776": "زا ",
  "4777": " دیا اور ",
  "4778": " ملے ",
  "4779": "دگ",
  "4780": "دیتا۔ ",
  "4781": "بے کے ",
  "4782": "اہمی",
  "4783": "توازن",
  "4784": "ام کو ",
  "4785": "راب ب",
  "4786": " سہ",
  "4787": "اؤ۔ ",
  "4788": " رہے ہیں۔ ",
  "4789": "پھی",
  "4790": " گاڑی ",
  "4791": "ہو گئی اور ",
  "4792": "م پر ",
  "4793": "لے آ",
  "4794": "داخلہ ",
  "4795": "  میں نے ",
  "4796": "میٹرک",
  "4797": "ضو",
  "4798": " کہاں سے ",
  "4799": "مجبور",
  "4800": " کار ",
  "4801": "لگتا ہے ",
  "4802": "ایک ساتھ",
  "4803": "میرے لئے ",
  "4804": " کونے میں ",
  "4805": "زیادہ تر ",
  "4806": "ماں کی ",
  "4807": " جی ",
  "4808": "اللہ نے ",
  "4809": "جھانک",
  "4810": " بیم",
  "4811": "اللہ کے ",
  "4812": "قہق",
  "4813": "اندھیر",
  "4814": "دور تک",
  "4815": "زدہ ",
  "4816": "فضول",
  "4817": "ناد",
  "4818": "یوں اور ",
  "4819": "آدمی کو ",
  "4820": "قیق",
  "4821": "ننھی ",
  "4822": "سے باہر ",
  "4823": "لنگ",
  "4824": " فراز",
  "4825": " کہہ رہے ",
  "4826": " خالہ ",
  "4827": "لاپرو",
  "4828": " سکا۔ ",
  "4829": "مطمئن",
  "4830": "ملنے ",
  "4831": "خوف ز",
  "4832": "خوف زدہ ",
  "4833": " کر دیا تھا۔ ",
  "4834": " اٹھا کر ",
  "4835": " رہا ہے۔ ",
  "4836": "ہو جائے۔ ",
  "4837": "پنجرہ ",
  "4838": "سل ",
  "4839": " کرنے لگ",
  "4840": " کئی دن",
  "4841": "تسلی دی",
  "4842": "صفائی",
  "4843": "لے کا ",
  "4844": "کھڑا ",
  "4845": " اس نے اپنی ",
  "4846": "جنگل سے ",
  "4847": "سپاہ",
  "4848": "انصاف",
  "4849": "حکومت",
  "4850": "بادشاہ کو ",
  "4851": "دونوں کو ",
  "4852": "پانی کی ",
  "4853": "حلق",
  "4854": "رون",
  "4855": "پھل ",
  "4856": "شوق سے ",
  "4857": "گھبرا ",
  "4858": " کی کہ ",
  "4859": "گدھا ",
  "4860": "نہیں آیا۔ ",
  "4861": "رہتا ہے۔ ",
  "4862": " چلا گیا۔ ",
  "4863": " کر لیں۔ ",
  "4864": " بکر",
  "4865": "ا کچھ",
  "4866": " کاشف",
  "4867": "پکڑا ",
  "4868": "پندرہ ",
  "4869": "علاقے میں ",
  "4870": "ہاتھ پھیر",
  "4871": "مات ",
  "4872": " ہو رہا تھا۔ ",
  "4873": "جس کی ",
  "4874": "فاروق",
  "4875": " ملازم",
  "4876": "غرا",
  "4877": "سیا",
  "4878": "خرگوش کو ",
  "4879": " فورا ",
  "4880": "مالی ",
  "4881": "ہو چکا تھا۔ ",
  "4882": "بہت بڑی ",
  "4883": "انگریز",
  "4884": "الجھ",
  "4885": "انور ",
  "4886": "ایک بڑی ",
  "4887": " گھنٹ",
  "4888": "بنا کر ",
  "4889": "جھونپڑی ",
  "4890": "وں گا",
  "4891": "اداس",
  "4892": "رہنے ",
  "4893": "تالاب",
  "4894": " کے وقت ",
  "4895": "سات ",
  "4896": " چکے تھے۔ ",
  "4897": "تے ہوئے بولا:”",
  "4898": " کب ",
  "4899": "شاء اللہ ",
  "4900": "احمد کو ",
  "4901": "اور کہا ",
  "4902": "حامد",
  "4903": "دفعہ ",
  "4904": " “ اس نے ",
  "4905": " اٹھا۔ ",
  "4906": " رات",
  "4907": "تا تھا اور ",
  "4908": "چودھری ",
  "4909": "قابل ",
  "4910": " چودھری ",
  "4911": "نے کے بعد وہ ",
  "4912": "و تو ",
  "4913": "ہو چکا ",
  "4914": " چلے ",
  "4915": "ہمدرد",
  "4916": "ملی ",
  "4917": "جس کے ",
  "4918": "بڑے بڑے ",
  "4919": "بیماری ",
  "4920": "ختہ ",
  "4921": " صرف",
  "4922": " خاموش",
  "4923": "نہیں چھوڑ",
  "4924": "چن میں ",
  "4925": "چھٹی",
  "4926": "اخرا",
  "4927": "اخراجا",
  "4928": " انھوں ",
  "4929": " رقم ",
  "4930": " کر لی ",
  "4931": "تی تھی،",
  "4932": "بھاری ",
  "4933": "پکڑے ",
  "4934": "ایک جگہ ",
  "4935": "طا ",
  "4936": " شہر ",
  "4937": "بھیجا ",
  "4938": "شمار ",
  "4939": "عبداللہ ",
  "4940": "موجود تھا۔ ",
  "4941": " ہوں ",
  "4942": " کر رہ ",
  "4943": "تاثر ",
  "4944": " نیچ",
  "4945": "یا؟“ ",
  "4946": "الماری ",
  "4947": "کیم ",
  "4948": "اخبار ",
  "4949": " کے ہاتھ",
  "4950": "تخ",
  "4951": "نہیں سک",
  "4952": " تھی ",
  "4953": "ترکیب ",
  "4954": "اعتماد",
  "4955": " پیش",
  "4956": "گارڈ",
  "4957": "اسوس",
  "4958": " توڑ",
  "4959": "پیغ",
  "4960": "حی",
  "4961": " قاض",
  "4962": " نانی ",
  "4963": "سبزی ",
  "4964": "گھونسلا ",
  "4965": " ٹوٹ",
  "4966": " ہوئے اور ",
  "4967": "ترق",
  "4968": "دعوت ",
  "4969": "اینٹ",
  "4970": " آس",
  "4971": "جس کا ",
  "4972": " بیفا ",
  "4973": "ہو رہا تھا۔ ",
  "4974": "چیون",
  "4975": "تھا لیکن",
  "4976": "وقف",
  "4977": " گند",
  "4978": "بہت پریشان",
  "4979": "کبھی ",
  "4980": "اشع",
  "4981": "پایا۔ ",
  "4982": "بنائے ",
  "4983": "گونج",
  "4984": "متاز",
  "4985": " اتفاق",
  "4986": "لنچ",
  "4987": "گائے ",
  "4988": "ے کار ",
  "4989": "لے ل",
  "4990": "شرارت ",
  "4991": " جس پر ",
  "4992": "اکیلے ",
  "4993": " ران",
  "4994": "دیے۔ ",
  "4995": "تی رہی۔ ",
  "4996": "چھت پر ",
  "4997": "عزیز",
  "4998": "فوری ",
  "4999": "آنے والی "
}