{
  "0": "<EOT>",
  "1": " ",
  "2": "ر",
  "3": "ح",
  "4": "م",
  "5": "ا",
  "6": "ن",
  "7": "ک",
  "8": "ے",
  "9": "ب",
  "10": "و",
  "11": "س",
  "12": "پ",
  "13": "ی",
  "14": "خ",
  "15": "د",
  "16": "گ",
  "17": "ھ",
  "18": "چ",
  "19": "ڑ",
  "20": "آ",
  "21": "ئ",
  "22": "۔",
  "23": "<EOS>",
  "24": "ج",
  "25": "ت",
  "26": "ف",
  "27": "ل",
  "28": "ں",
  "29": "ٹ",
  "30": "ع",
  "31": "ہ",
  "32": "ڈ",
  "33": "غ",
  "34": "ص",
  "35": "ش",
  "36": "ذ",
  "37": "ز",
  "38": "ؤ",
  "39": "<EOP>",
  "40": "،",
  "41": "ظ",
  "42": "ض",
  "43": "ط",
  "44": "ق",
  "45": "“",
  "46": ":",
  "47": "”",
  "48": "؟",
  "49": "!",
  "50": "‘",
  "51": "ث",
  "52": ".",
  "53": "(",
  "54": ")",
  "55": "1",
  "56": "4",
  "57": "ء",
  "58": "ژ",
  "59": "’",
  "60": "5",
  "61": "A",
  "62": "+",
  "63": "0",
  "64": "ٴ",
  "65": "2",
  "66": "3",
  "67": "6",
  "68": "9",
  "69": "أ",
  "70": "7",
  "71": "G",
  "72": "r",
  "73": "a",
  "74": "s",
  "75": "R",
  "76": "o",
  "77": "t",
  "78": "L",
  "79": "e",
  "80": "d",
  "81": "l",
  "82": "b",
  "83": "F",
  "84": "y",
  "85": "c",
  "86": "i",
  "87": "p",
  "88": "E",
  "89": "n",
  "90": "z",
  "91": "m",
  "92": "B",
  "93": "W",
  "94": "v",
  "95": "N",
  "96": "w",
  "97": "T",
  "98": "S",
  "99": "h",
  "100": "P",
  "101": "H",
  "102": "D",
  "103": "M",
  "104": "u",
  "105": "g",
  "106": "I",
  "107": "x",
  "108": ",",
  "109": "O",
  "110": "8",
  "111": "C",
  "112": "V",
  "113": "k",
  "114": "f",
  "115": "#",
  "116": "-",
  "117": "K",
  "118": "\"",
  "119": "ۓ",
  "120": "–",
  "121": "ؑ",
  "122": "_",
  "123": "U",
  "124": "�",
  "125": "q",
  "126": "؛",
  "127": "/",
  "128": "'",
  "129": "?",
  "130": "J",
  "131": "Z",
  "132": "‌",
  "133": "j",
  "134": "\u0004",
  "135": "¿",
  "136": ";",
  "137": "",
  "138": "Y",
  "139": "X",
  "140": "",
  "141": "ے ",
  "142": " ک",
  "143": "ی ",
  "144": "ر ",
  "145": "ا ",
  "146": "ں ",
  "147": "ہ ",
  "148": "۔ ",
  "149": "نے ",
  "150": "یں ",
  "151": " ا",
  "152": "و ",
  "153": "ان",
  "154": "تھ",
  "155": "سے ",
  "156": "میں ",
  "157": "ور ",
  "158": " کے ",
  "159": "ہو",
  "160": "  ",
  "161": "یک",
  "162": "س ",
  "163": "یا",
  "164": "ت ",
  "165": " کی ",
  "166": "بھ",
  "167": "ال",
  "168": "اور ",
  "169": "ار",
  "170": "م ",
  "171": "ب ",
  "172": "یا ",
  "173": " کر ",
  "174": "ا۔ ",
  "175": "ے۔ ",
  "176": " کر",
  "177": "با",
  "178": "یں",
  "179": "ل ",
  "180": "ائ",
  "181": "ے ک",
  "182": "چھ",
  "183": "ن ",
  "184": "وہ ",
  "185": "وں ",
  "186": "رہ",
  "187": "د ",
  "188": "تے ",
  "189": "ہیں ",
  "190": "ہا",
  "191": " کو ",
  "192": " کا ",
  "193": "می",
  "194": "بھی ",
  "195": "یک ",
  "196": "اس",
  "197": "نے ک",
  "198": "ور",
  "199": "پر ",
  "200": "اس ",
  "201": "وں",
  "202": "تا ",
  "203": "اپ",
  "204": "ان ",
  "205": "ی۔ ",
  "206": "تو ",
  "207": "دو",
  "208": " کہ ",
  "209": "ئے ",
  "210": "یہ ",
  "211": "ام",
  "212": "بی",
  "213": "رو",
  "214": "جھ",
  "215": "ئی ",
  "216": " کو",
  "217": "ہی ",
  "218": "دی",
  "219": "لگ",
  "220": "ری",
  "221": "لا",
  "222": "کھ",
  "223": "ہو ",
  "224": " “",
  "225": "جا",
  "226": "یا۔ ",
  "227": "گھ",
  "228": "لی",
  "229": "ہے ",
  "230": "بہ",
  "231": "نہیں ",
  "232": "ہیں",
  "233": "را",
  "234": "نا ",
  "235": "تی ",
  "236": "ٹھ",
  "237": "ایک ",
  "238": "خو",
  "239": "نی ",
  "240": " اس ",
  "241": "تھا۔ ",
  "242": " م",
  "243": "پھ",
  "244": "..",
  "245": "یکھ",
  "246": "لے ",
  "247": " کھ",
  "248": "دیکھ",
  "249": " اس",
  "250": "ہے۔ ",
  "251": "بو",
  "252": "لو",
  "253": "اد",
  "254": "ک ",
  "255": "رے ",
  "256": " ”",
  "257": "تو",
  "258": "ند",
  "259": "ری ",
  "260": "سو",
  "261": "تم",
  "262": "سا",
  "263": "نا",
  "264": " میں ",
  "265": "تا",
  "266": "مجھ",
  "267": "نہ ",
  "268": "طر",
  "269": "پہ",
  "270": "بہت ",
  "271": "بچ",
  "272": "جو",
  "273": "سک",
  "274": " ان",
  "275": "شا",
  "276": "ار ",
  "277": "ف ",
  "278": "بڑ",
  "279": "آپ",
  "280": "! ",
  "281": "تھا",
  "282": " گ",
  "283": "لی ",
  "284": " کہ",
  "285": " “ ",
  "286": "پڑ",
  "287": "گر ",
  "288": " اور ",
  "289": "نک",
  "290": "ہو گ",
  "291": "وال",
  "292": "- ",
  "293": "سی ",
  "294": "نے لگ",
  "295": " کی",
  "296": "پی",
  "297": "اپنے ",
  "298": "ہاں ",
  "299": "ما",
  "300": " ج",
  "301": "نگ",
  "302": "دوس",
  "303": "ز ",
  "304": "ساتھ",
  "305": "تی",
  "306": "ے،",
  "307": "سے ک",
  "308": ":”",
  "309": "ہر ",
  "310": "تھا ",
  "311": " ایک ",
  "312": "چا",
  "313": "رہا ",
  "314": "ارے ",
  "315": " کیا ",
  "316": "ش ",
  "317": "تم ",
  "318": "دھ",
  "319": "پھر ",
  "320": "لئے ",
  "321": "ائی ",
  "322": "ہم",
  "323": "را ",
  "324": "در",
  "325": "وق",
  "326": "لا ",
  "327": "سن",
  "328": "اسے ",
  "329": " وہ ",
  "330": " کا",
  "331": "چھ ",
  "332": "اح",
  "333": "وٹ",
  "334": "سی",
  "335": "اری ",
  "336": "وا",
  "337": "ہیں۔ ",
  "338": "گھر ",
  "339": "تھے۔ ",
  "340": "رکھ",
  "341": "ائے ",
  "342": "ی تھ",
  "343": " اپ",
  "344": "تے ہو",
  "345": "انی ",
  "346": "نے کے ",
  "347": "یر",
  "348": "باد",
  "349": "بع",
  "350": "جان",
  "351": "مل",
  "352": "اپنی ",
  "353": "ہی",
  "354": "ال ",
  "355": "وں کے ",
  "356": "گا",
  "357": "مح",
  "358": "یں۔ ",
  "359": "ے کہ ",
  "360": "پو",
  "361": "لیک",
  "362": "پر",
  "363": "مع",
  "364": "بات ",
  "365": "سب ",
  "366": " اس نے ",
  "367": "اب",
  "368": "رہے ",
  "369": "لہ ",
  "370": "مجھے ",
  "371": "بادشا",
  "372": " ب",
  "373": "مو",
  "374": "اب ",
  "375": "چی",
  "376": "جی",
  "377": "اس کے ",
  "378": "دا",
  "379": "شک",
  "380": "لوگ",
  "381": "وڑ",
  "382": "نچ",
  "383": "نوں ",
  "384": " کوئی ",
  "385": "ہوا ",
  "386": "نی",
  "387": "دہ ",
  "388": "وں کی ",
  "389": "دن ",
  "390": "ساتھ ",
  "391": " کچھ ",
  "392": "ہوں ",
  "393": "گر",
  "394": "بھی",
  "395": "ہم ",
  "396": "گئ",
  "397": "یاں ",
  "398": "ہوں",
  "399": "بیٹ",
  "400": "ہاتھ",
  "401": "شہ",
  "402": "یر ",
  "403": "میرے ",
  "404": "اک",
  "405": "ات",
  "406": "وں کو ",
  "407": "بیٹھ",
  "408": "یا اور ",
  "409": "اس کی ",
  "410": " د",
  "411": "نظ",
  "412": "طرح",
  "413": "ست",
  "414": "میں",
  "415": "ی سے ",
  "416": "صاح",
  "417": "بے ",
  "418": "طرف ",
  "419": "ام ",
  "420": "تھے ",
  "421": "بر",
  "422": "بعد ",
  "423": "بات",
  "424": "وں سے ",
  "425": "ہے",
  "426": "کے ",
  "427": "تھی۔ ",
  "428": "وں میں ",
  "429": "ای",
  "430": "ی اور ",
  "431": "، ",
  "432": "ائی",
  "433": "ہ ک",
  "434": "میری ",
  "435": "مر",
  "436": "ٹ ",
  "437": "وں نے ",
  "438": "جو ",
  "439": "ول ",
  "440": "ون",
  "441": "مگر ",
  "442": "کہ ",
  "443": "نہیں",
  "444": "سب",
  "445": "جب ",
  "446": "من",
  "447": "....",
  "448": "سمجھ",
  "449": "اور",
  "450": " اس کے ",
  "451": "فی",
  "452": "؟“",
  "453": "ا اور ",
  "454": "سل",
  "455": "تھا کہ ",
  "456": "پہنچ",
  "457": "پاس ",
  "458": "اس نے ",
  "459": " آ",
  "460": " سے ",
  "461": "نے کی ",
  "462": "کڑ",
  "463": "لیکن ",
  "464": "چو",
  "465": "سر",
  "466": "ے کے ",
  "467": "تع",
  "468": "تے ہوئے ",
  "469": "تھی",
  "470": "یں گ",
  "471": " کر د",
  "472": "سا ",
  "473": "می ",
  "474": "اف",
  "475": "بادشاہ ",
  "476": " یہ ",
  "477": "وقت ",
  "478": "ے کی ",
  "479": "خت",
  "480": " اسے ",
  "481": "مان",
  "482": "گیا۔ ",
  "483": "پوچھ",
  "484": "گیا ",
  "485": "جہ ",
  "486": "ؤں ",
  "487": "لہ",
  "488": "گا۔ ",
  "489": "ہے،",
  "490": "تمہ",
  "491": "ان کے ",
  "492": "لیے ",
  "493": "دونوں ",
  "494": "ج ",
  "495": "ہے کہ ",
  "496": "آن",
  "497": "تک ",
  "498": "نظر ",
  "499": "خوش",
  "500": "ہوئی ",
  "501": "قی",
  "502": "کی",
  "503": "دے ",
  "504": "ٹی",
  "505": "ول",
  "506": "فر",
  "507": "آپ ",
  "508": "دن",
  "509": "سوچ",
  "510": " اپنے ",
  "511": "رہی تھ",
  "512": "بول",
  "513": " اس کی ",
  "514": " اب ",
  "515": "اص",
  "516": "کا ",
  "517": "چھوٹ",
  "518": "آئ",
  "519": "اچھ",
  "520": "نے وال",
  "521": "یا کہ ",
  "522": "پہلے ",
  "523": "لڑ",
  "524": "ارا ",
  "525": "بن",
  "526": "ہر",
  "527": "سر ",
  "528": "پڑھ",
  "529": "ضر",
  "530": "وہاں ",
  "531": "مز",
  "532": "مد",
  "533": "گز",
  "534": "زاد",
  "535": "دل ",
  "536": "ہا ",
  "537": "لے ک",
  "538": "جائے ",
  "539": "آوا",
  "540": "گو",
  "541": "دیکھ کر ",
  "542": "انا ",
  "543": "نو",
  "544": "بار",
  "545": "دی ",
  "546": "زیا",
  "547": "شر",
  "548": "ورت ",
  "549": " کسی ",
  "550": "نے کا ",
  "551": "خوش ",
  "552": "ڑھ",
  "553": "جا ",
  "554": "سام",
  "555": "گی",
  "556": "ان کی ",
  "557": "تا ہے ",
  "558": "گھر",
  "559": "بتا",
  "560": "پا",
  "561": "چاہ",
  "562": "جائ",
  "563": "چل",
  "564": "ہا:”",
  "565": "پری",
  "566": "اٹھ",
  "567": "بار ",
  "568": "گی ",
  "569": "میں نے ",
  "570": "دیر ",
  "571": " کھا",
  "572": "ھیں ",
  "573": "تے ہیں ",
  "574": "ت سے ",
  "575": "دو ",
  "576": "یہ",
  "577": "پور",
  "578": "بڑھ",
  "579": "سم",
  "580": "آگ",
  "581": "ئے ک",
  "582": "ڑی ",
  "583": "جل",
  "584": "زیادہ ",
  "585": "بل",
  "586": "واپ",
  "587": "ہوں۔ ",
  "588": "وجہ ",
  "589": "تا۔ ",
  "590": "تھا،",
  "591": "پیا",
  "592": "از",
  "593": "ے سے ",
  "594": "حیر",
  "595": "تے ہیں۔ ",
  "596": "قری",
  "597": " س",
  "598": "شرو",
  "599": "ی کے ",
  "600": " کام",
  "601": "شہزاد",
  "602": "جنگ",
  "603": "شروع",
  "604": " ع",
  "605": "تھی ",
  "606": "آنکھ",
  "607": " ال",
  "608": "کر ",
  "609": "چان",
  "610": "ایک",
  "611": "انہ ",
  "612": "ا کہ ",
  "613": "بڑے ",
  "614": "ے کو ",
  "615": "باہر ",
  "616": "ئی",
  "617": "بڑی ",
  "618": " ای",
  "619": "بہت",
  "620": "وں کا ",
  "621": "ی نے ",
  "622": "سن کر ",
  "623": "ت کے ",
  "624": "اگ",
  "625": "در ",
  "626": "دار ",
  "627": "سان",
  "628": "اس کا ",
  "629": "نے میں ",
  "630": "اق",
  "631": " چ",
  "632": "بچے ",
  "633": "رہ ",
  "634": "صاحب ",
  "635": "دیکھا ",
  "636": "میرا ",
  "637": "نڈ",
  "638": "رہا تھا۔ ",
  "639": "تا ہے۔ ",
  "640": "بح",
  "641": "مک",
  "642": "ئے۔ ",
  "643": "پریش",
  "644": "جب",
  "645": "تہ ",
  "646": "ہوئے ",
  "647": "طرح ",
  "648": "مال",
  "649": "ہ کر",
  "650": "بند",
  "651": "جان ",
  "652": "گئی ",
  "653": "جگ",
  "654": "دیا۔ ",
  "655": "مل ",
  "656": "بی ",
  "657": "تا تھا۔ ",
  "658": "ٹر ",
  "659": "؟“ ",
  "660": "صاحب",
  "661": "گئے ",
  "662": "نے سے ",
  "663": " کام ",
  "664": "زند",
  "665": "ی کی ",
  "666": "او",
  "667": "ند ",
  "668": " اپنی ",
  "669": "ل میں ",
  "670": "پانی ",
  "671": "ہے ۔ ",
  "672": "ئی۔ ",
  "673": "ق ",
  "674": "تک",
  "675": "تو وہ ",
  "676": "ت میں ",
  "677": "خص",
  "678": "بر ",
  "679": "رواز",
  "680": " ان ",
  "681": "زی",
  "682": "نکہ ",
  "683": "زمی",
  "684": "دیا ",
  "685": "خت ",
  "686": "بال",
  "687": "ت کر",
  "688": "ٹی ",
  "689": "اپنا ",
  "690": " کھی",
  "691": "لے کر ",
  "692": "اڑ",
  "693": " مجھ",
  "694": "ہمیں ",
  "695": "وجہ سے ",
  "696": " اچھ",
  "697": "ہا۔ ",
  "698": "صر",
  "699": "وں پر ",
  "700": "عل",
  "701": "تمہیں ",
  "702": "واپس ",
  "703": "ہوتی ",
  "704": "روز",
  "705": "خر",
  "706": "جس ",
  "707": "ے میں ",
  "708": "ہوں نے ",
  "709": "ہمارے ",
  "710": "تھا اور ",
  "711": " کیا",
  "712": "کی ",
  "713": "وی",
  "714": "ت کی ",
  "715": "ے اور ",
  "716": "جواب ",
  "717": "شی",
  "718": "یں اور ",
  "719": "صبح",
  "720": "ہے اور ",
  "721": "آیا ",
  "722": "آد",
  "723": "تر",
  "724": "بولا",
  "725": "با ",
  "726": "پکڑ",
  "727": "تیا",
  "728": "دوسرے ",
  "729": " جب ",
  "730": "حال",
  "731": "تھوڑ",
  "732": " ل",
  "733": "جس",
  "734": " کرنا ",
  "735": " ات",
  "736": " کھڑ",
  "737": "امی ",
  "738": " پھر ",
  "739": "دور ",
  "740": "رہی ",
  "741": "ا کر ",
  "742": "بنا",
  "743": "لیکن",
  "744": "یہاں ",
  "745": "خیا",
  "746": "آواز ",
  "747": "چھوڑ",
  "748": "انت",
  "749": "ھوں نے ",
  "750": "ے کا ",
  "751": "مار",
  "752": " کی طرف ",
  "753": "نے لگا۔ ",
  "754": "نے کے لئے ",
  "755": "درواز",
  "756": "سان ",
  "757": "بھائی ",
  "758": "بد",
  "759": "تے ہیں",
  "760": "وز",
  "761": "آئے ",
  "762": "بادشاہ",
  "763": "اللہ ",
  "764": " کم",
  "765": "ہن",
  "766": "تمام ",
  "767": " کے ک",
  "768": "بڑا ",
  "769": "امی",
  "770": "تح",
  "771": "بھاگ",
  "772": "بھو",
  "773": "ماں ",
  "774": "تے تھے۔ ",
  "775": "خود ",
  "776": "داد",
  "777": " پر ",
  "778": "انگ",
  "779": "قص",
  "780": "جگہ ",
  "781": "دکھ",
  "782": "ونکہ ",
  "783": "چلا ",
  "784": "نے کی",
  "785": " مجھے ",
  "786": "درخت",
  "787": "خا",
  "788": "سو ",
  "789": "گئی۔ ",
  "790": " ن",
  "791": "ڈھ",
  "792": " کے لئے ",
  "793": "جود ",
  "794": "چڑ",
  "795": "پان",
  "796": "خر ",
  "797": " کیا۔ ",
  "798": "نام ",
  "799": " اٹھ",
  "800": "ادھ",
  "801": "جی ",
  "802": "صورت ",
  "803": "ڈاک",
  "804": "پیچھ",
  "805": "منہ ",
  "806": "اگر ",
  "807": "شخص",
  "808": "بعد",
  "809": "ہ کر ",
  "810": "تے ہوئے ک",
  "811": "گا ",
  "812": "دوست ",
  "813": "سال",
  "814": "سامنے ",
  "815": "اس سے ",
  "816": "ؤں",
  "817": "ہاتھ ",
  "818": " کبھی ",
  "819": "قریب ",
  "820": "علا",
  "821": " کوش",
  "822": "یا،",
  "823": " کیوں ",
  "824": "رنگ",
  "825": " کے پاس ",
  "826": "ہو گیا۔ ",
  "827": "نیچ",
  "828": "ا،",
  "829": "چیز",
  "830": "رے میں ",
  "831": "بت",
  "832": "بن ",
  "833": "فو",
  "834": "ہاں",
  "835": "نکال",
  "836": "مر ",
  "837": "ڈال",
  "838": "دور",
  "839": "ہو کر ",
  "840": "گئے۔ ",
  "841": "پ ",
  "842": "فور",
  "843": "پریشان ",
  "844": "چاہی",
  "845": "ملا",
  "846": "بان",
  "847": "گی۔ ",
  "848": "ن میں ",
  "849": "انھیں ",
  "850": "گھر میں ",
  "851": "ہو۔ ",
  "852": "مسک",
  "853": "پک",
  "854": "لوگ ",
  "855": " اسی ",
  "856": "بہ ",
  "857": "اہ",
  "858": "فا",
  "859": "اسی ",
  "860": "خال",
  "861": "کر",
  "862": " اس کا ",
  "863": "جاتی ",
  "864": "بھائی",
  "865": " اگر ",
  "866": " میں نے ",
  "867": "جیسے ",
  "868": "چل ",
  "869": "دیکھ ",
  "870": " گیا۔ ",
  "871": " اح",
  "872": "ان میں ",
  "873": "یں گے۔ ",
  "874": "واق",
  "875": "دا ",
  "876": "اری",
  "877": "ا کر",
  "878": "د نے ",
  "879": " مگر ",
  "880": " اب",
  "881": "وں کو",
  "882": "ے- ",
  "883": " کے ساتھ ",
  "884": "تے ہی ",
  "885": "ت کا ",
  "886": "ان سے ",
  "887": "آج ",
  "888": "رہے تھے۔ ",
  "889": "بیو",
  "890": "خیال ",
  "891": "وئی ",
  "892": "سب سے ",
  "893": "لکھ",
  "894": "مق",
  "895": "اور ک",
  "896": "زور ",
  "897": " کوشش",
  "898": "آئی ",
  "899": "نے کہا",
  "900": "ہو گیا ",
  "901": "غص",
  "902": "نکل ",
  "903": "لط",
  "904": " ان کی ",
  "905": "دل",
  "906": "لم",
  "907": "راس",
  "908": "رک",
  "909": "شیر ",
  "910": "رات ",
  "911": ".....",
  "912": "ید ",
  "913": "پھی",
  "914": "کل ",
  "915": "لوم",
  "916": " کرتا ",
  "917": "زا",
  "918": "بوڑھ",
  "919": "وہ",
  "920": "ل کے ",
  "921": "نے پر ",
  "922": " کرکے ",
  "923": "خوب",
  "924": "نکل",
  "925": "یوں ",
  "926": "تے۔ ",
  "927": "مت ",
  "928": "تمہاری ",
  "929": "پرند",
  "930": " ان کے ",
  "931": "وہ ک",
  "932": "لیا ",
  "933": "دوست",
  "934": "ی،",
  "935": "اندر ",
  "936": "مط",
  "937": "داخ",
  "938": "روپ",
  "939": "خوشی ",
  "940": "تمہارے ",
  "941": "سائ",
  "942": "آگے ",
  "943": "سلام",
  "944": "آیا۔ ",
  "945": "خری",
  "946": "آج",
  "947": "اسک",
  "948": "ان کا ",
  "949": "صح",
  "950": "ٹھیک ",
  "951": "واقع",
  "952": "آ ",
  "953": "زندگی ",
  "954": "جاؤ",
  "955": "فی ",
  "956": "یاد ",
  "957": "ی کا ",
  "958": "نے لگے۔ ",
  "959": "شہ ",
  "960": "ی تھی۔ ",
  "961": " کچھ",
  "962": "زمین ",
  "963": "ڈر",
  "964": "حک",
  "965": "ادھر ",
  "966": "تھے،",
  "967": "نیچے ",
  "968": "مص",
  "969": "فورا ",
  "970": "تھی کہ ",
  "971": " پ",
  "972": "فیص",
  "973": "نے کہا:”",
  "974": "تاکہ ",
  "975": "ے پر ",
  "976": "تھوڑی ",
  "977": "لیا۔ ",
  "978": "یہ کہ",
  "979": "چھوٹے ",
  "980": "تلا",
  "981": "پھر",
  "982": "خوب ",
  "983": "و نے ",
  "984": "سن ",
  "985": "شام",
  "986": " کرو",
  "987": "دوسر",
  "988": "دع",
  "989": "بیٹا ",
  "990": "آواز",
  "991": "یں،",
  "992": "ات ",
  "993": "تم نے ",
  "994": "نھ",
  "995": "لگا",
  "996": "ساری ",
  "997": "پیچھے ",
  "998": "نے کے بعد ",
  "999": "یقی"
}