{
  "0": "<EOT>",
  "1": " ",
  "2": "ر",
  "3": "ح",
  "4": "م",
  "5": "ا",
  "6": "ن",
  "7": "ک",
  "8": "ے",
  "9": "ب",
  "10": "و",
  "11": "س",
  "12": "پ",
  "13": "ی",
  "14": "خ",
  "15": "د",
  "16": "گ",
  "17": "ھ",
  "18": "چ",
  "19": "ڑ",
  "20": "آ",
  "21": "ئ",
  "22": "۔",
  "23": "<EOS>",
  "24": "ج",
  "25": "ت",
  "26": "ف",
  "27": "ل",
  "28": "ں",
  "29": "ٹ",
  "30": "ع",
  "31": "ہ",
  "32": "ڈ",
  "33": "غ",
  "34": "ص",
  "35": "ش",
  "36": "ذ",
  "37": "ز",
  "38": "ؤ",
  "39": "<EOP>",
  "40": "،",
  "41": "ظ",
  "42": "ض",
  "43": "ط",
  "44": "ق",
  "45": "“",
  "46": ":",
  "47": "”",
  "48": "؟",
  "49": "!",
  "50": "‘",
  "51": "ث",
  "52": ".",
  "53": "(",
  "54": ")",
  "55": "1",
  "56": "4",
  "57": "ء",
  "58": "ژ",
  "59": "’",
  "60": "5",
  "61": "A",
  "62": "+",
  "63": "0",
  "64": "ٴ",
  "65": "2",
  "66": "3",
  "67": "6",
  "68": "9",
  "69": "أ",
  "70": "7",
  "71": "G",
  "72": "r",
  "73": "a",
  "74": "s",
  "75": "R",
  "76": "o",
  "77": "t",
  "78": "L",
  "79": "e",
  "80": "d",
  "81": "l",
  "82": "b",
  "83": "F",
  "84": "y",
  "85": "c",
  "86": "i",
  "87": "p",
  "88": "E",
  "89": "n",
  "90": "z",
  "91": "m",
  "92": "B",
  "93": "W",
  "94": "v",
  "95": "N",
  "96": "w",
  "97": "T",
  "98": "S",
  "99": "h",
  "100": "P",
  "101": "H",
  "102": "D",
  "103": "M",
  "104": "u",
  "105": "g",
  "106": "I",
  "107": "x",
  "108": ",",
  "109": "O",
  "110": "8",
  "111": "C",
  "112": "V",
  "113": "k",
  "114": "f",
  "115": "#",
  "116": "-",
  "117": "K",
  "118": "\"",
  "119": "ۓ",
  "120": "–",
  "121": "ؑ",
  "122": "_",
  "123": "U",
  "124": "�",
  "125": "q",
  "126": "؛",
  "127": "/",
  "128": "'",
  "129": "?",
  "130": "J",
  "131": "Z",
  "132": "‌",
  "133": "j",
  "134": "\u0004",
  "135": "¿",
  "136": ";",
  "137": "",
  "138": "Y",
  "139": "X",
  "140": "",
  "141": "ے ",
  "142": " ک",
  "143": "ی ",
  "144": "ر ",
  "145": "ا ",
  "146": "ں ",
  "147": "ہ ",
  "148": "۔ ",
  "149": "نے ",
  "150": "یں ",
  "151": " ا",
  "152": "و ",
  "153": "ان",
  "154": "تھ",
  "155": "سے ",
  "156": "میں ",
  "157": "ور ",
  "158": " کے ",
  "159": "ہو",
  "160": "  ",
  "161": "یک",
  "162": "س ",
  "163": "یا",
  "164": "ت ",
  "165": " کی ",
  "166": "بھ",
  "167": "ال",
  "168": "اور ",
  "169": "ار",
  "170": "م ",
  "171": "ب ",
  "172": "یا ",
  "173": " کر ",
  "174": "ا۔ ",
  "175": "ے۔ ",
  "176": " کر",
  "177": "با",
  "178": "یں",
  "179": "ل ",
  "180": "ائ",
  "181": "ے ک",
  "182": "چھ",
  "183": "ن ",
  "184": "وہ ",
  "185": "وں ",
  "186": "رہ",
  "187": "د ",
  "188": "تے ",
  "189": "ہیں ",
  "190": "ہا",
  "191": " کو ",
  "192": " کا ",
  "193": "می",
  "194": "بھی ",
  "195": "یک ",
  "196": "اس",
  "197": "نے ک",
  "198": "ور",
  "199": "پر ",
  "200": "اس ",
  "201": "وں",
  "202": "تا ",
  "203": "اپ",
  "204": "ان ",
  "205": "ی۔ ",
  "206": "تو ",
  "207": "دو",
  "208": " کہ ",
  "209": "ئے ",
  "210": "یہ ",
  "211": "ام",
  "212": "بی",
  "213": "رو",
  "214": "جھ",
  "215": "ئی ",
  "216": " کو",
  "217": "ہی ",
  "218": "دی",
  "219": "لگ",
  "220": "ری",
  "221": "لا",
  "222": "کھ",
  "223": "ہو ",
  "224": " “",
  "225": "جا",
  "226": "یا۔ ",
  "227": "گھ",
  "228": "لی",
  "229": "ہے ",
  "230": "بہ",
  "231": "نہیں ",
  "232": "ہیں",
  "233": "را",
  "234": "نا ",
  "235": "تی ",
  "236": "ٹھ",
  "237": "ایک ",
  "238": "خو",
  "239": "نی ",
  "240": " اس ",
  "241": "تھا۔ ",
  "242": " م",
  "243": "پھ",
  "244": "..",
  "245": "یکھ",
  "246": "لے ",
  "247": " کھ",
  "248": "دیکھ",
  "249": " اس",
  "250": "ہے۔ ",
  "251": "بو",
  "252": "لو",
  "253": "اد",
  "254": "ک ",
  "255": "رے ",
  "256": " ”",
  "257": "تو",
  "258": "ند",
  "259": "ری ",
  "260": "سو",
  "261": "تم",
  "262": "سا",
  "263": "نا",
  "264": " میں ",
  "265": "تا",
  "266": "مجھ",
  "267": "نہ ",
  "268": "طر",
  "269": "پہ",
  "270": "بہت ",
  "271": "بچ",
  "272": "جو",
  "273": "سک",
  "274": " ان",
  "275": "شا",
  "276": "ار ",
  "277": "ف ",
  "278": "بڑ",
  "279": "آپ",
  "280": "! ",
  "281": "تھا",
  "282": " گ",
  "283": "لی ",
  "284": " کہ",
  "285": " “ ",
  "286": "پڑ",
  "287": "گر ",
  "288": " اور ",
  "289": "نک",
  "290": "ہو گ",
  "291": "وال",
  "292": "- ",
  "293": "سی ",
  "294": "نے لگ",
  "295": " کی",
  "296": "پی",
  "297": "اپنے ",
  "298": "ہاں ",
  "299": "ما",
  "300": " ج",
  "301": "نگ",
  "302": "دوس",
  "303": "ز ",
  "304": "ساتھ",
  "305": "تی",
  "306": "ے،",
  "307": "سے ک",
  "308": ":”",
  "309": "ہر ",
  "310": "تھا ",
  "311": " ایک ",
  "312": "چا",
  "313": "رہا ",
  "314": "ارے ",
  "315": " کیا ",
  "316": "ش ",
  "317": "تم ",
  "318": "دھ",
  "319": "پھر ",
  "320": "لئے ",
  "321": "ائی ",
  "322": "ہم",
  "323": "را ",
  "324": "در",
  "325": "وق",
  "326": "لا ",
  "327": "سن",
  "328": "اسے ",
  "329": " وہ ",
  "330": " کا",
  "331": "چھ ",
  "332": "اح",
  "333": "وٹ",
  "334": "سی",
  "335": "اری ",
  "336": "وا",
  "337": "ہیں۔ ",
  "338": "گھر ",
  "339": "تھے۔ ",
  "340": "رکھ",
  "341": "ائے ",
  "342": "ی تھ",
  "343": " اپ",
  "344": "تے ہو",
  "345": "انی ",
  "346": "نے کے ",
  "347": "یر",
  "348": "باد",
  "349": "بع",
  "350": "جان",
  "351": "مل",
  "352": "اپنی ",
  "353": "ہی",
  "354": "ال ",
  "355": "وں کے ",
  "356": "گا",
  "357": "مح",
  "358": "یں۔ ",
  "359": "ے کہ ",
  "360": "پو",
  "361": "لیک",
  "362": "پر",
  "363": "مع",
  "364": "بات ",
  "365": "سب ",
  "366": " اس نے ",
  "367": "اب",
  "368": "رہے ",
  "369": "لہ ",
  "370": "مجھے ",
  "371": "بادشا",
  "372": " ب",
  "373": "مو",
  "374": "اب ",
  "375": "چی",
  "376": "جی",
  "377": "اس کے ",
  "378": "دا",
  "379": "شک",
  "380": "لوگ",
  "381": "وڑ",
  "382": "نچ",
  "383": "نوں ",
  "384": " کوئی ",
  "385": "ہوا ",
  "386": "نی",
  "387": "دہ ",
  "388": "وں کی ",
  "389": "دن ",
  "390": "ساتھ ",
  "391": " کچھ ",
  "392": "ہوں ",
  "393": "گر",
  "394": "بھی",
  "395": "ہم ",
  "396": "گئ",
  "397": "یاں ",
  "398": "ہوں",
  "399": "بیٹ",
  "400": "ہاتھ",
  "401": "شہ",
  "402": "یر ",
  "403": "میرے ",
  "404": "اک",
  "405": "ات",
  "406": "وں کو ",
  "407": "بیٹھ",
  "408": "یا اور ",
  "409": "اس کی ",
  "410": " د",
  "411": "نظ",
  "412": "طرح",
  "413": "ست",
  "414": "میں",
  "415": "ی سے ",
  "416": "صاح",
  "417": "بے ",
  "418": "طرف ",
  "419": "ام ",
  "420": "تھے ",
  "421": "بر",
  "422": "بعد ",
  "423": "بات",
  "424": "وں سے ",
  "425": "ہے",
  "426": "کے ",
  "427": "تھی۔ ",
  "428": "وں میں ",
  "429": "ای",
  "430": "ی اور ",
  "431": "، ",
  "432": "ائی",
  "433": "ہ ک",
  "434": "میری ",
  "435": "مر",
  "436": "ٹ ",
  "437": "وں نے ",
  "438": "جو ",
  "439": "ول ",
  "440": "ون",
  "441": "مگر ",
  "442": "کہ ",
  "443": "نہیں",
  "444": "سب",
  "445": "جب ",
  "446": "من",
  "447": "....",
  "448": "سمجھ",
  "449": "اور",
  "450": " اس کے ",
  "451": "فی",
  "452": "؟“",
  "453": "ا اور ",
  "454": "سل",
  "455": "تھا کہ ",
  "456": "پہنچ",
  "457": "پاس ",
  "458": "اس نے ",
  "459": " آ",
  "460": " سے ",
  "461": "نے کی ",
  "462": "کڑ",
  "463": "لیکن ",
  "464": "چو",
  "465": "سر",
  "466": "ے کے ",
  "467": "تع",
  "468": "تے ہوئے ",
  "469": "تھی",
  "470": "یں گ",
  "471": " کر د",
  "472": "سا ",
  "473": "می ",
  "474": "اف",
  "475": "بادشاہ ",
  "476": " یہ ",
  "477": "وقت ",
  "478": "ے کی ",
  "479": "خت",
  "480": " اسے ",
  "481": "مان",
  "482": "گیا۔ ",
  "483": "پوچھ",
  "484": "گیا ",
  "485": "جہ ",
  "486": "ؤں ",
  "487": "لہ",
  "488": "گا۔ ",
  "489": "ہے،",
  "490": "تمہ",
  "491": "ان کے ",
  "492": "لیے ",
  "493": "دونوں ",
  "494": "ج ",
  "495": "ہے کہ ",
  "496": "آن",
  "497": "تک ",
  "498": "نظر ",
  "499": "خوش",
  "500": "ہوئی ",
  "501": "قی",
  "502": "کی",
  "503": "دے ",
  "504": "ٹی",
  "505": "ول",
  "506": "فر",
  "507": "آپ ",
  "508": "دن",
  "509": "سوچ",
  "510": " اپنے ",
  "511": "رہی تھ",
  "512": "بول",
  "513": " اس کی ",
  "514": " اب ",
  "515": "اص",
  "516": "کا ",
  "517": "چھوٹ",
  "518": "آئ",
  "519": "اچھ",
  "520": "نے وال",
  "521": "یا کہ ",
  "522": "پہلے ",
  "523": "لڑ",
  "524": "ارا ",
  "525": "بن",
  "526": "ہر",
  "527": "سر ",
  "528": "پڑھ",
  "529": "ضر",
  "530": "وہاں ",
  "531": "مز",
  "532": "مد",
  "533": "گز",
  "534": "زاد",
  "535": "دل ",
  "536": "ہا ",
  "537": "لے ک",
  "538": "جائے ",
  "539": "آوا",
  "540": "گو",
  "541": "دیکھ کر ",
  "542": "انا ",
  "543": "نو",
  "544": "بار",
  "545": "دی ",
  "546": "زیا",
  "547": "شر",
  "548": "ورت ",
  "549": " کسی ",
  "550": "نے کا ",
  "551": "خوش ",
  "552": "ڑھ",
  "553": "جا ",
  "554": "سام",
  "555": "گی",
  "556": "ان کی ",
  "557": "تا ہے ",
  "558": "گھر",
  "559": "بتا",
  "560": "پا",
  "561": "چاہ",
  "562": "جائ",
  "563": "چل",
  "564": "ہا:”",
  "565": "پری",
  "566": "اٹھ",
  "567": "بار ",
  "568": "گی ",
  "569": "میں نے ",
  "570": "دیر ",
  "571": " کھا",
  "572": "ھیں ",
  "573": "تے ہیں ",
  "574": "ت سے ",
  "575": "دو ",
  "576": "یہ",
  "577": "پور",
  "578": "بڑھ",
  "579": "سم",
  "580": "آگ",
  "581": "ئے ک",
  "582": "ڑی ",
  "583": "جل",
  "584": "زیادہ ",
  "585": "بل",
  "586": "واپ",
  "587": "ہوں۔ ",
  "588": "وجہ ",
  "589": "تا۔ ",
  "590": "تھا،",
  "591": "پیا",
  "592": "از",
  "593": "ے سے ",
  "594": "حیر",
  "595": "تے ہیں۔ ",
  "596": "قری",
  "597": " س",
  "598": "شرو",
  "599": "ی کے ",
  "600": " کام",
  "601": "شہزاد",
  "602": "جنگ",
  "603": "شروع",
  "604": " ع",
  "605": "تھی ",
  "606": "آنکھ",
  "607": " ال",
  "608": "کر ",
  "609": "چان",
  "610": "ایک",
  "611": "انہ ",
  "612": "ا کہ ",
  "613": "بڑے ",
  "614": "ے کو ",
  "615": "باہر ",
  "616": "ئی",
  "617": "بڑی ",
  "618": " ای",
  "619": "بہت",
  "620": "وں کا ",
  "621": "ی نے ",
  "622": "سن کر ",
  "623": "ت کے ",
  "624": "اگ",
  "625": "در ",
  "626": "دار ",
  "627": "سان",
  "628": "اس کا ",
  "629": "نے میں ",
  "630": "اق",
  "631": " چ",
  "632": "بچے ",
  "633": "رہ ",
  "634": "صاحب ",
  "635": "دیکھا ",
  "636": "میرا ",
  "637": "نڈ",
  "638": "رہا تھا۔ ",
  "639": "تا ہے۔ ",
  "640": "بح",
  "641": "مک",
  "642": "ئے۔ ",
  "643": "پریش",
  "644": "جب",
  "645": "تہ ",
  "646": "ہوئے ",
  "647": "طرح ",
  "648": "مال",
  "649": "ہ کر",
  "650": "بند",
  "651": "جان ",
  "652": "گئی ",
  "653": "جگ",
  "654": "دیا۔ ",
  "655": "مل ",
  "656": "بی ",
  "657": "تا تھا۔ ",
  "658": "ٹر ",
  "659": "؟“ ",
  "660": "صاحب",
  "661": "گئے ",
  "662": "نے سے ",
  "663": " کام ",
  "664": "زند",
  "665": "ی کی ",
  "666": "او",
  "667": "ند ",
  "668": " اپنی ",
  "669": "ل میں ",
  "670": "پانی ",
  "671": "ہے ۔ ",
  "672": "ئی۔ ",
  "673": "ق ",
  "674": "تک",
  "675": "تو وہ ",
  "676": "ت میں ",
  "677": "خص",
  "678": "بر ",
  "679": "رواز",
  "680": " ان ",
  "681": "زی",
  "682": "نکہ ",
  "683": "زمی",
  "684": "دیا ",
  "685": "خت ",
  "686": "بال",
  "687": "ت کر",
  "688": "ٹی ",
  "689": "اپنا ",
  "690": " کھی",
  "691": "لے کر ",
  "692": "اڑ",
  "693": " مجھ",
  "694": "ہمیں ",
  "695": "وجہ سے ",
  "696": " اچھ",
  "697": "ہا۔ ",
  "698": "صر",
  "699": "وں پر ",
  "700": "عل",
  "701": "تمہیں ",
  "702": "واپس ",
  "703": "ہوتی ",
  "704": "روز",
  "705": "خر",
  "706": "جس ",
  "707": "ے میں ",
  "708": "ہوں نے ",
  "709": "ہمارے ",
  "710": "تھا اور ",
  "711": " کیا",
  "712": "کی ",
  "713": "وی",
  "714": "ت کی ",
  "715": "ے اور ",
  "716": "جواب ",
  "717": "شی",
  "718": "یں اور ",
  "719": "صبح",
  "720": "ہے اور ",
  "721": "آیا ",
  "722": "آد",
  "723": "تر",
  "724": "بولا",
  "725": "با ",
  "726": "پکڑ",
  "727": "تیا",
  "728": "دوسرے ",
  "729": " جب ",
  "730": "حال",
  "731": "تھوڑ",
  "732": " ل",
  "733": "جس",
  "734": " کرنا ",
  "735": " ات",
  "736": " کھڑ",
  "737": "امی ",
  "738": " پھر ",
  "739": "دور ",
  "740": "رہی ",
  "741": "ا کر ",
  "742": "بنا",
  "743": "لیکن",
  "744": "یہاں ",
  "745": "خیا",
  "746": "آواز ",
  "747": "چھوڑ",
  "748": "انت",
  "749": "ھوں نے ",
  "750": "ے کا ",
  "751": "مار",
  "752": " کی طرف ",
  "753": "نے لگا۔ ",
  "754": "نے کے لئے ",
  "755": "درواز",
  "756": "سان ",
  "757": "بھائی ",
  "758": "بد",
  "759": "تے ہیں",
  "760": "وز",
  "761": "آئے ",
  "762": "بادشاہ",
  "763": "اللہ ",
  "764": " کم",
  "765": "ہن",
  "766": "تمام ",
  "767": " کے ک",
  "768": "بڑا ",
  "769": "امی",
  "770": "تح",
  "771": "بھاگ",
  "772": "بھو",
  "773": "ماں ",
  "774": "تے تھے۔ ",
  "775": "خود ",
  "776": "داد",
  "777": " پر ",
  "778": "انگ",
  "779": "قص",
  "780": "جگہ ",
  "781": "دکھ",
  "782": "ونکہ ",
  "783": "چلا ",
  "784": "نے کی",
  "785": " مجھے ",
  "786": "درخت",
  "787": "خا",
  "788": "سو ",
  "789": "گئی۔ ",
  "790": " ن",
  "791": "ڈھ",
  "792": " کے لئے ",
  "793": "جود ",
  "794": "چڑ",
  "795": "پان",
  "796": "خر ",
  "797": " کیا۔ ",
  "798": "نام ",
  "799": " اٹھ",
  "800": "ادھ",
  "801": "جی ",
  "802": "صورت ",
  "803": "ڈاک",
  "804": "پیچھ",
  "805": "منہ ",
  "806": "اگر ",
  "807": "شخص",
  "808": "بعد",
  "809": "ہ کر ",
  "810": "تے ہوئے ک",
  "811": "گا ",
  "812": "دوست ",
  "813": "سال",
  "814": "سامنے ",
  "815": "اس سے ",
  "816": "ؤں",
  "817": "ہاتھ ",
  "818": " کبھی ",
  "819": "قریب ",
  "820": "علا",
  "821": " کوش",
  "822": "یا،",
  "823": " کیوں ",
  "824": "رنگ",
  "825": " کے پاس ",
  "826": "ہو گیا۔ ",
  "827": "نیچ",
  "828": "ا،",
  "829": "چیز",
  "830": "رے میں ",
  "831": "بت",
  "832": "بن ",
  "833": "فو",
  "834": "ہاں",
  "835": "نکال",
  "836": "مر ",
  "837": "ڈال",
  "838": "دور",
  "839": "ہو کر ",
  "840": "گئے۔ ",
  "841": "پ ",
  "842": "فور",
  "843": "پریشان ",
  "844": "چاہی",
  "845": "ملا",
  "846": "بان",
  "847": "گی۔ ",
  "848": "ن میں ",
  "849": "انھیں ",
  "850": "گھر میں ",
  "851": "ہو۔ ",
  "852": "مسک",
  "853": "پک",
  "854": "لوگ ",
  "855": " اسی ",
  "856": "بہ ",
  "857": "اہ",
  "858": "فا",
  "859": "اسی ",
  "860": "خال",
  "861": "کر",
  "862": " اس کا ",
  "863": "جاتی ",
  "864": "بھائی",
  "865": " اگر ",
  "866": " میں نے ",
  "867": "جیسے ",
  "868": "چل ",
  "869": "دیکھ ",
  "870": " گیا۔ ",
  "871": " اح",
  "872": "ان میں ",
  "873": "یں گے۔ ",
  "874": "واق",
  "875": "دا ",
  "876": "اری",
  "877": "ا کر",
  "878": "د نے ",
  "879": " مگر ",
  "880": " اب",
  "881": "وں کو",
  "882": "ے- ",
  "883": " کے ساتھ ",
  "884": "تے ہی ",
  "885": "ت کا ",
  "886": "ان سے ",
  "887": "آج ",
  "888": "رہے تھے۔ ",
  "889": "بیو",
  "890": "خیال ",
  "891": "وئی ",
  "892": "سب سے ",
  "893": "لکھ",
  "894": "مق",
  "895": "اور ک",
  "896": "زور ",
  "897": " کوشش",
  "898": "آئی ",
  "899": "نے کہا",
  "900": "ہو گیا ",
  "901": "غص",
  "902": "نکل ",
  "903": "لط",
  "904": " ان کی ",
  "905": "دل",
  "906": "لم",
  "907": "راس",
  "908": "رک",
  "909": "شیر ",
  "910": "رات ",
  "911": ".....",
  "912": "ید ",
  "913": "پھی",
  "914": "کل ",
  "915": "لوم",
  "916": " کرتا ",
  "917": "زا",
  "918": "بوڑھ",
  "919": "وہ",
  "920": "ل کے ",
  "921": "نے پر ",
  "922": " کرکے ",
  "923": "خوب",
  "924": "نکل",
  "925": "یوں ",
  "926": "تے۔ ",
  "927": "مت ",
  "928": "تمہاری ",
  "929": "پرند",
  "930": " ان کے ",
  "931": "وہ ک",
  "932": "لیا ",
  "933": "دوست",
  "934": "ی،",
  "935": "اندر ",
  "936": "مط",
  "937": "داخ",
  "938": "روپ",
  "939": "خوشی ",
  "940": "تمہارے ",
  "941": "سائ",
  "942": "آگے ",
  "943": "سلام",
  "944": "آیا۔ ",
  "945": "خری",
  "946": "آج",
  "947": "اسک",
  "948": "ان کا ",
  "949": "صح",
  "950": "ٹھیک ",
  "951": "واقع",
  "952": "آ ",
  "953": "زندگی ",
  "954": "جاؤ",
  "955": "فی ",
  "956": "یاد ",
  "957": "ی کا ",
  "958": "نے لگے۔ ",
  "959": "شہ ",
  "960": "ی تھی۔ ",
  "961": " کچھ",
  "962": "زمین ",
  "963": "ڈر",
  "964": "حک",
  "965": "ادھر ",
  "966": "تھے،",
  "967": "نیچے ",
  "968": "مص",
  "969": "فورا ",
  "970": "تھی کہ ",
  "971": " پ",
  "972": "فیص",
  "973": "نے کہا:”",
  "974": "تاکہ ",
  "975": "ے پر ",
  "976": "تھوڑی ",
  "977": "لیا۔ ",
  "978": "یہ کہ",
  "979": "چھوٹے ",
  "980": "تلا",
  "981": "پھر",
  "982": "خوب ",
  "983": "و نے ",
  "984": "سن ",
  "985": "شام",
  "986": " کرو",
  "987": "دوسر",
  "988": "دع",
  "989": "بیٹا ",
  "990": "آواز",
  "991": "یں،",
  "992": "ات ",
  "993": "تم نے ",
  "994": "نھ",
  "995": "لگا",
  "996": "ساری ",
  "997": "پیچھے ",
  "998": "نے کے بعد ",
  "999": "یقی",
  "1000": "چ ",
  "1001": "پڑے ",
  "1002": "مشک",
  "1003": "ہوا۔ ",
  "1004": "زار ",
  "1005": "اض",
  "1006": "بہت خوش ",
  "1007": "تھیں۔ ",
  "1008": " کل",
  "1009": "رض",
  "1010": "ہوتا ",
  "1011": "ماں",
  "1012": "موجود ",
  "1013": "بیگ",
  "1014": "لگا ",
  "1015": "مچھ",
  "1016": "شیر",
  "1017": " انھوں نے ",
  "1018": "دم",
  "1019": "ستہ ",
  "1020": "گاؤں ",
  "1021": "گلے ",
  "1022": " کسی",
  "1023": "مان ",
  "1024": "آدمی ",
  "1025": "تھے اور ",
  "1026": "مسکرا",
  "1027": "محن",
  "1028": "ے نے ",
  "1029": "گھوڑ",
  "1030": "پن",
  "1031": "آپ کو ",
  "1032": "غلط",
  "1033": "پیسے ",
  "1034": "بس",
  "1035": "ہماری ",
  "1036": "مدد",
  "1037": "“۔ ",
  "1038": "ا تھا۔ ",
  "1039": "غری",
  "1040": "تین ",
  "1041": "تھے کہ ",
  "1042": "نے کہا ",
  "1043": "وری ",
  "1044": "ید",
  "1045": "رات",
  "1046": " اللہ ",
  "1047": "بھر ",
  "1048": "دوسری ",
  "1049": "یاں",
  "1050": "دی۔ ",
  "1051": "جن",
  "1052": "بنا ",
  "1053": "جانور",
  "1054": "دم ",
  "1055": "وط",
  "1056": "بھر",
  "1057": "چلے ",
  "1058": "ابو",
  "1059": "ہو گئی ",
  "1060": "فت",
  "1061": "روز ",
  "1062": "درخت ",
  "1063": "رہی تھی۔ ",
  "1064": "جہاں ",
  "1065": " انہوں نے ",
  "1066": "چکا ",
  "1067": "جر",
  "1068": "صو",
  "1069": "نہ",
  "1070": "معلو",
  "1071": "امو",
  "1072": "ابھی ",
  "1073": "انہیں ",
  "1074": "نے والے ",
  "1075": "شو",
  "1076": "باتیں ",
  "1077": "جاتا ",
  "1078": "حیران ",
  "1079": "مار ",
  "1080": " \"",
  "1081": "آ گ",
  "1082": "قی ",
  "1083": " کرتی ",
  "1084": "شہر ",
  "1085": "حاص",
  "1086": "مس",
  "1087": "چلا",
  "1088": "بھی نہیں ",
  "1089": "ر سے ",
  "1090": "مض",
  "1091": "رح",
  "1092": "نے اسے ",
  "1093": "ضرور ",
  "1094": "بولا:”",
  "1095": "مد ",
  "1096": "ل سے ",
  "1097": "حص",
  "1098": " کر سک",
  "1099": "یہی ",
  "1100": "ڑ ",
  "1101": " بادشاہ ",
  "1102": " کہا ",
  "1103": "چار",
  "1104": " میں",
  "1105": "بارے ",
  "1106": "ہمی",
  "1107": "آہ",
  "1108": "بولی",
  "1109": " ایک دن ",
  "1110": "اس میں ",
  "1111": "اش",
  "1112": "نم",
  "1113": "لے میں ",
  "1114": "وٹ ",
  "1115": "ٹو",
  "1116": " ابھی ",
  "1117": "تلاش",
  "1118": "والے ",
  "1119": "ے کھ",
  "1120": "جا کر ",
  "1121": "برا",
  "1122": "وقت",
  "1123": "جیب ",
  "1124": "سپ",
  "1125": "لکڑ",
  "1126": "وں اور ",
  "1127": "دھو",
  "1128": "دار",
  "1129": "زر",
  "1130": " ہو",
  "1131": " کت",
  "1132": "پوچھا۔ ",
  "1133": "صرف ",
  "1134": "جمع",
  "1135": " کیسے ",
  "1136": "جانور ",
  "1137": "دک",
  "1138": "اچھا ",
  "1139": "ثر ",
  "1140": "ے-",
  "1141": "تھے ۔ ",
  "1142": "\"- ",
  "1143": " کیونکہ ",
  "1144": "زہ ",
  "1145": "تی۔ ",
  "1146": "داخل ",
  "1147": "ٹر",
  "1148": "دون",
  "1149": "ایسا ",
  "1150": " ایک",
  "1151": "بارہ ",
  "1152": "محسو",
  "1153": " کیا اور ",
  "1154": "نٹ",
  "1155": " کہہ ",
  "1156": "بھال",
  "1157": "ان کو ",
  "1158": " اچان",
  "1159": "م نے ",
  "1160": "ٹا ",
  "1161": "رق",
  "1162": "ی کہ ",
  "1163": "م سے ",
  "1164": "سارے ",
  "1165": "گوش",
  "1166": "چک",
  "1167": "وں گا۔ ",
  "1168": "باپ",
  "1169": "س میں ",
  "1170": "یو",
  "1171": "ٹک",
  "1172": " کار",
  "1173": "ا! ",
  "1174": "ی کو ",
  "1175": "بچہ ",
  "1176": "خامو",
  "1177": "یت ",
  "1178": "ے کو",
  "1179": "ائیں ",
  "1180": "تھا- ",
  "1181": "ابو ",
  "1182": "نہیں کر",
  "1183": " کر دیا۔ ",
  "1184": "خ ",
  "1185": "اں ",
  "1186": "م میں ",
  "1187": "انتظ",
  "1188": "طور ",
  "1189": "ننھ",
  "1190": " کتا",
  "1191": "غیر ",
  "1192": "تال",
  "1193": "جادو",
  "1194": "بلکہ ",
  "1195": "خاص",
  "1196": "خرا",
  "1197": "معلوم ",
  "1198": "معاف",
  "1199": "مہ ",
  "1200": "خود",
  "1201": "نے کے لیے ",
  "1202": "ن کی ",
  "1203": "سارا ",
  "1204": "ر کے ",
  "1205": "پاس",
  "1206": " امی ",
  "1207": "عر",
  "1208": "گیا اور ",
  "1209": "صاحب نے ",
  "1210": "انا",
  "1211": " کافی ",
  "1212": " کھیل",
  "1213": "؟ ",
  "1214": "سے کہا",
  "1215": "ن کے ",
  "1216": " ف",
  "1217": "ن سے ",
  "1218": "ہار",
  "1219": "اع",
  "1220": "ختم ",
  "1221": "نظر",
  "1222": "نہیں۔ ",
  "1223": "مش",
  "1224": "اندا",
  "1225": " کھانا ",
  "1226": "ادی ",
  "1227": "ہل",
  "1228": "نے کی کوشش",
  "1229": "وم",
  "1230": " ح",
  "1231": "پتا ",
  "1232": "بلا",
  "1233": "چند ",
  "1234": "روش",
  "1235": "طرف",
  "1236": "چی ",
  "1237": "اس کو ",
  "1238": "دیا",
  "1239": "سال ",
  "1240": " کہیں ",
  "1241": "قسم",
  "1242": "بارے میں ",
  "1243": "رہا۔ ",
  "1244": "ہو سک",
  "1245": "اچھی ",
  "1246": "لڑک",
  "1247": "بیٹھے ",
  "1248": "ل کر",
  "1249": "ضرورت ",
  "1250": "وزیر ",
  "1251": " کی۔ ",
  "1252": "دوڑ",
  "1253": "پوچھا",
  "1254": "بالکل ",
  "1255": "خوبصورت ",
  "1256": "ایا ",
  "1257": "چلی ",
  "1258": "دہ",
  "1259": "کیا ",
  "1260": "لگ ",
  "1261": "،مگر ",
  "1262": "ذہ",
  "1263": "صی",
  "1264": "رہا تھا کہ ",
  "1265": "ن نے ",
  "1266": " کھو",
  "1267": "جلدی ",
  "1268": "- \"",
  "1269": "دنیا ",
  "1270": "رہا تھا ",
  "1271": "عمر ",
  "1272": "لئے ک",
  "1273": "ڈاکٹر ",
  "1274": "نے لگی۔ ",
  "1275": "گزر",
  "1276": " اند",
  "1277": "پسن",
  "1278": "نا چاہ",
  "1279": " اور",
  "1280": "بک",
  "1281": "شہزادہ ",
  "1282": "ہرے ",
  "1283": "د کے ",
  "1284": "آپ کی ",
  "1285": "تھا-",
  "1286": "تو اس نے ",
  "1287": "خط",
  "1288": " کم ",
  "1289": "ذرا ",
  "1290": "چار ",
  "1291": "ملک",
  "1292": "اس لئے ",
  "1293": "ت اور ",
  "1294": "ان پر ",
  "1295": "آہستہ ",
  "1296": "نے لگا ",
  "1297": "نہیں ہو",
  "1298": " کہا",
  "1299": "اچان",
  "1300": " کی وجہ سے ",
  "1301": "سنا",
  "1302": "گڑ",
  "1303": "والدی",
  "1304": " انھیں ",
  "1305": "پاک",
  "1306": "ل کی ",
  "1307": "ہو جا",
  "1308": " ہم ",
  "1309": "نے کہا۔ ",
  "1310": "صرف",
  "1311": "گدھ",
  "1312": "مند",
  "1313": "عام ",
  "1314": " کرتے ",
  "1315": "نہ کر",
  "1316": " ت",
  "1317": "جنگل میں ",
  "1318": "بچوں کو ",
  "1319": "عق",
  "1320": "بھیڑ",
  "1321": "چھپ",
  "1322": "تیز",
  "1323": "چا ",
  "1324": "پوری ",
  "1325": "میں ایک ",
  "1326": "آپ کے ",
  "1327": " اس سے ",
  "1328": "رکھا ",
  "1329": "چھوٹی ",
  "1330": "دھی",
  "1331": " کر دیا ",
  "1332": "تیز ",
  "1333": "تعلی",
  "1334": "ع ",
  "1335": " کہاں ",
  "1336": "طوط",
  "1337": "لو ",
  "1338": " کئی ",
  "1339": "بیوی ",
  "1340": "دوبارہ ",
  "1341": "نہیں آ",
  "1342": "باغ",
  "1343": "دادا ",
  "1344": "عاد",
  "1345": "انہوں نے ",
  "1346": " ۔ ",
  "1347": "مرغ",
  "1348": "آپ نے ",
  "1349": " جب",
  "1350": "تی ہے۔ ",
  "1351": "بولا۔ ",
  "1352": " مل",
  "1353": "فائ",
  "1354": "سکول ",
  "1355": "دیکھا کہ ",
  "1356": "صبح ",
  "1357": "اس پر ",
  "1358": "تھی،",
  "1359": "زا ",
  "1360": "نے والی ",
  "1361": "وہاں سے ",
  "1362": "گھر کے ",
  "1363": "گیا",
  "1364": "پڑی ",
  "1365": "اتنی ",
  "1366": "ہیں،",
  "1367": "وہی ",
  "1368": "تا ہوا ",
  "1369": "ست ",
  "1370": "ہوا کہ ",
  "1371": "پہ ",
  "1372": "الی ",
  "1373": "د کی ",
  "1374": "غریب ",
  "1375": "میاں ",
  "1376": "ہیں اور ",
  "1377": "ہے-",
  "1378": "مانگ",
  "1379": "بیٹھا ",
  "1380": "وع",
  "1381": "ہوا",
  "1382": "ان نے ",
  "1383": "م کے ",
  "1384": "م کی ",
  "1385": "ہمیشہ ",
  "1386": "ہے ک",
  "1387": "ے کر ",
  "1388": " اف",
  "1389": "تو میں ",
  "1390": "بہا",
  "1391": "ڈی",
  "1392": "...",
  "1393": "گزر ",
  "1394": " کر دی",
  "1395": "راستے ",
  "1396": "موٹ",
  "1397": "آخر ",
  "1398": "بس ",
  "1399": "بیچ",
  "1400": "دان",
  "1401": " کہ وہ ",
  "1402": "جائے۔ ",
  "1403": "ہے- ",
  "1404": "ر نے ",
  "1405": "ہو گئے ",
  "1406": " گئی ",
  "1407": "فار",
  "1408": "چیز ",
  "1409": "گھر سے ",
  "1410": "دی سے ",
  "1411": "سوچا",
  "1412": "ہو گئی۔ ",
  "1413": " کے بعد ",
  "1414": "ہو گئے۔ ",
  "1415": "چڑھ",
  "1416": "جانب ",
  "1417": "بری ",
  "1418": "ساس ",
  "1419": "سوال",
  "1420": "زمین پر ",
  "1421": "نظر آ",
  "1422": "ہاڑ",
  "1423": " کہا۔ ",
  "1424": "تینوں ",
  "1425": "نام",
  "1426": "طور پر ",
  "1427": "انک",
  "1428": "ناک ",
  "1429": "لف",
  "1430": "جانا ",
  "1431": "بابا ",
  "1432": "ملاز",
  "1433": "اپنے ک",
  "1434": "برا ",
  "1435": "تھا ۔ ",
  "1436": "بیٹا! ",
  "1437": "و! ",
  "1438": "یں گے ",
  "1439": "مام",
  "1440": " تم ",
  "1441": " آخر ",
  "1442": "پرو",
  "1443": "عی",
  "1444": "تھی اور ",
  "1445": "د سے ",
  "1446": "اللہ",
  "1447": "اتنا ",
  "1448": "نک ",
  "1449": "تا ہوں۔ ",
  "1450": "آنکھیں ",
  "1451": "شم",
  "1452": "“ ",
  "1453": "نا شروع",
  "1454": "مرے میں ",
  "1455": "نوجو",
  "1456": "ملک ",
  "1457": "نے لگے ",
  "1458": " کھا ",
  "1459": "پسند ",
  "1460": "نہا",
  "1461": "یقین ",
  "1462": "دف",
  "1463": "ہنس",
  "1464": "یہ کہہ کر ",
  "1465": "سوچ ",
  "1466": " اچھا ",
  "1467": " میرے ",
  "1468": "گھون",
  "1469": "پتہ ",
  "1470": "سے کہ",
  "1471": "بلی",
  "1472": "بج",
  "1473": "بط",
  "1474": "پیش",
  "1475": "\" ",
  "1476": "تی تھی۔ ",
  "1477": "دیو",
  "1478": "چم",
  "1479": " جی",
  "1480": "ے:”",
  "1481": "نے کو ",
  "1482": "قر",
  "1483": "پری ",
  "1484": " کر کے ",
  "1485": "حال ",
  "1486": "بہن ",
  "1487": "تا ہوں",
  "1488": "پہن",
  "1489": "تھوڑی دیر ",
  "1490": "ہری ",
  "1491": "صف",
  "1492": "ہے ،",
  "1493": "تمہارا ",
  "1494": "گاڑی ",
  "1495": " سب ",
  "1496": "تیار ",
  "1497": " کھڑا ",
  "1498": " نے ",
  "1499": " کچھ دیر ",
  "1500": "تنگ",
  "1501": " کہانی ",
  "1502": " کون ",
  "1503": "بلی ",
  "1504": "سور",
  "1505": "انھوں نے ",
  "1506": "تا،",
  "1507": "بتایا کہ ",
  "1508": "تیں ",
  "1509": "ہو جائے ",
  "1510": "اوپر ",
  "1511": "چیزیں ",
  "1512": "نے والا ",
  "1513": "پہنچا ",
  "1514": "سائیک",
  "1515": " مو",
  "1516": " کے ساتھ",
  "1517": "بادشاہ سلام",
  "1518": "یہ بات ",
  "1519": "اف ",
  "1520": "اسکول ",
  "1521": "ہوا تھا۔ ",
  "1522": "بیٹھ گ",
  "1523": " امی",
  "1524": "بائ",
  "1525": "ما ",
  "1526": "ہاتھ میں ",
  "1527": "چھوٹا ",
  "1528": "ایسے ",
  "1529": "آئی۔ ",
  "1530": " اگلے ",
  "1531": "چاہیے۔ ",
  "1532": "سمجھا",
  "1533": "ے کر",
  "1534": " ایسا ",
  "1535": "مال ",
  "1536": "پل",
  "1537": "لال",
  "1538": " جو ",
  "1539": "شکر ",
  "1540": "خرید",
  "1541": "خبر ",
  "1542": "عز",
  "1543": "روپے ",
  "1544": "علاق",
  "1545": "  وہ ",
  "1546": "حد ",
  "1547": "تو اسے ",
  "1548": "فاظ",
  "1549": "آگے بڑھ",
  "1550": "بچوں کے ",
  "1551": " کھول",
  "1552": "خان",
  "1553": "سمند",
  "1554": "فر ",
  "1555": "مالک ",
  "1556": "جار",
  "1557": "چڑیا ",
  "1558": "مصرو",
  "1559": "خوشی سے ",
  "1560": " کی بات ",
  "1561": "مہ",
  "1562": "باقی ",
  "1563": "زور سے ",
  "1564": " ر",
  "1565": "نے لگا",
  "1566": "ہمارا ",
  "1567": "حکم ",
  "1568": "ت پر ",
  "1569": "رہا ہے۔ ",
  "1570": "تا ہے اور ",
  "1571": "یہ ک",
  "1572": "پہنچ گ",
  "1573": "ہو گا۔ ",
  "1574": "آنسو ",
  "1575": "تمھ",
  "1576": "لائ",
  "1577": "انسان",
  "1578": "مخت",
  "1579": "پیارے ",
  "1580": " اسک",
  "1581": "ی تھی ",
  "1582": "تیزی سے ",
  "1583": " لیکن ",
  "1584": "نا۔ ",
  "1585": "عہ ",
  "1586": "مسل",
  "1587": "اخ",
  "1588": "انسان ",
  "1589": "تے ہیں اور ",
  "1590": "ے ہوئے ",
  "1591": " شا",
  "1592": "ہے؟",
  "1593": "چہ ",
  "1594": "دل میں ",
  "1595": "ونڈ",
  "1596": "بتا ",
  "1597": "ر کی ",
  "1598": "پولی",
  "1599": " سک",
  "1600": " دونوں ",
  "1601": "علی ",
  "1602": "شہزادی ",
  "1603": " کتاب",
  "1604": "شرار",
  "1605": "پٹ",
  "1606": "ار کر",
  "1607": "مجھ سے ",
  "1608": " اپنا ",
  "1609": "نش",
  "1610": "تے ہوئے کہا۔ ",
  "1611": "اہ ",
  "1612": "یں ۔ ",
  "1613": "ون ",
  "1614": "ور سے ",
  "1615": "د میں ",
  "1616": "ر کر",
  "1617": "پاکست",
  "1618": " کام کر",
  "1619": "ماع",
  "1620": "تر ",
  "1621": "وص",
  "1622": "مند ",
  "1623": "زی ",
  "1624": "نان",
  "1625": "سخت ",
  "1626": "بست",
  "1627": "گل",
  "1628": "نہ ہو",
  "1629": "علی",
  "1630": "موق",
  "1631": "جلدی سے ",
  "1632": "تے ہیں،",
  "1633": " کل ",
  "1634": "پورے ",
  "1635": " اڑ",
  "1636": "ہ کے ",
  "1637": "فق",
  "1638": " اچھی ",
  "1639": "نقص",
  "1640": "آؤ",
  "1641": "پتھ",
  "1642": "رقم ",
  "1643": "است",
  "1644": "دیکھا۔ ",
  "1645": "سنا ",
  "1646": "آیا اور ",
  "1647": "سٹ",
  "1648": "سے کہا:”",
  "1649": "دنوں ",
  "1650": "ایسی ",
  "1651": "تو اس ",
  "1652": "نع",
  "1653": "عرص",
  "1654": "بہت سے ",
  "1655": "گا اور ",
  "1656": "تا اور ",
  "1657": "لمح",
  "1658": "عال",
  "1659": "تب",
  "1660": "ہزار ",
  "1661": "معمو",
  "1662": "زرگ",
  "1663": "محسوس ",
  "1664": " مح",
  "1665": " کال",
  "1666": "نما",
  "1667": "وف",
  "1668": "س کے ",
  "1669": "پاؤں ",
  "1670": "صور",
  "1671": "دول",
  "1672": " ادھ",
  "1673": "خواہ",
  "1674": "ائی۔ ",
  "1675": "گزار",
  "1676": "خوف ",
  "1677": "مشکل ",
  "1678": "بولا ",
  "1679": "رش",
  "1680": "رکھ د",
  "1681": "جاتے ",
  "1682": "فکر ",
  "1683": "وہ اپنے ",
  "1684": "سے کوئی ",
  "1685": "رار ",
  "1686": "گاڑ",
  "1687": "چپ",
  "1688": "ؤں کے ",
  "1689": "خراب ",
  "1690": "یاب ",
  "1691": "ڈھونڈ",
  "1692": "ن کو ",
  "1693": "کھا",
  "1694": "باتیں",
  "1695": "رہی تھی ",
  "1696": "تھی ۔ ",
  "1697": "علم ",
  "1698": "والا ",
  "1699": "محب",
  "1700": "پوچھا ",
  "1701": "نے کھ",
  "1702": "لومڑی ",
  "1703": "ہوا اور ",
  "1704": "یں کہ ",
  "1705": " ان کا ",
  "1706": " کر رہے ",
  "1707": "لی اور ",
  "1708": "مقاب",
  "1709": "پھول",
  "1710": "سڑ",
  "1711": "ی کر",
  "1712": "جماع",
  "1713": "ہم نے ",
  "1714": "و گ",
  "1715": "پڑا ",
  "1716": "مصروف ",
  "1717": "چکے ",
  "1718": "بل ",
  "1719": "روانہ ",
  "1720": "مہی",
  "1721": "ڈر ",
  "1722": "دودھ",
  "1723": "غیر",
  "1724": "چلا گیا۔ ",
  "1725": "تن",
  "1726": "ہی نہیں ",
  "1727": "فض",
  "1728": "ٹوٹ",
  "1729": " ق",
  "1730": " اس لئے ",
  "1731": " اتنی ",
  "1732": "بادشاہ نے ",
  "1733": "ابا ",
  "1734": "دس ",
  "1735": "چیون",
  "1736": "آکر ",
  "1737": "آر",
  "1738": "شن ",
  "1739": "چور",
  "1740": " آپ",
  "1741": "صاف",
  "1742": "میں بھی ",
  "1743": "یاد",
  "1744": "سفی",
  "1745": "احساس ",
  "1746": "نہیں،",
  "1747": "شکر",
  "1748": " کو اپنے ",
  "1749": "انی سے ",
  "1750": "ہٹ",
  "1751": "توڑ",
  "1752": "یا کر",
  "1753": " کر ل",
  "1754": "تے رہ",
  "1755": "بغیر ",
  "1756": "نر",
  "1757": "دو۔ ",
  "1758": "لم ",
  "1759": "لہج",
  "1760": " اک",
  "1761": "دکھائی ",
  "1762": "گا،",
  "1763": "بند ",
  "1764": "ہلا",
  "1765": "پس",
  "1766": "یع",
  "1767": "غر",
  "1768": "غذ",
  "1769": "رین ",
  "1770": "عجیب ",
  "1771": "چیخ",
  "1772": "ل نے ",
  "1773": "بابا",
  "1774": "ہوئی۔ ",
  "1775": "لام ",
  "1776": "نے کو",
  "1777": "بھول ",
  "1778": "جا سک",
  "1779": " اچانک",
  "1780": "ریق",
  "1781": "نق",
  "1782": "زخ",
  "1783": "ی ہوئی ",
  "1784": "خی",
  "1785": "لیٹ",
  "1786": "نے اور ",
  "1787": "شادی",
  "1788": " کس ",
  "1789": "ادا",
  "1790": "شوق",
  "1791": " کو بھی ",
  "1792": "آس",
  "1793": "ہ کی ",
  "1794": "لڑکا ",
  "1795": "عظ",
  "1796": "دیکھا تو ",
  "1797": "ملے ",
  "1798": "زار",
  "1799": "تقری",
  "1800": "پورا ",
  "1801": "جاز",
  "1802": "اط",
  "1803": "ے! ",
  "1804": "ٹکڑ",
  "1805": "لف ",
  "1806": "رہتی ",
  "1807": "حی",
  "1808": "انداز",
  "1809": "ہار ",
  "1810": "گیا تھا۔ ",
  "1811": "اچھے ",
  "1812": "ملا ",
  "1813": "میر",
  "1814": "مرت",
  "1815": "چہرے ",
  "1816": "تھے- ",
  "1817": "- وہ ",
  "1818": "پوچھا:”",
  "1819": "نیک",
  "1820": "ہوں اور ",
  "1821": "ے تو ",
  "1822": "سے کچھ ",
  "1823": "پت",
  "1824": "شرمند",
  "1825": "نارے ",
  "1826": "جاؤں ",
  "1827": " میری ",
  "1828": "قاب",
  "1829": "نصی",
  "1830": "ض ",
  "1831": " آج",
  "1832": " کھانا",
  "1833": "آدمی",
  "1834": "رام ",
  "1835": "بچوں کی ",
  "1836": "ورنہ ",
  "1837": "حصہ ",
  "1838": "تا تھا ",
  "1839": "سے کہا ",
  "1840": "سپا",
  "1841": "بادشاہ کے ",
  "1842": "مالک",
  "1843": "ہیں ۔ ",
  "1844": "ح ",
  "1845": "ر میں ",
  "1846": "صاف ",
  "1847": "خاط",
  "1848": "ے گا۔ ",
  "1849": "زب",
  "1850": "حمل",
  "1851": "بخ",
  "1852": "پاپ",
  "1853": "ت کو ",
  "1854": "خاموش ",
  "1855": "بجائے ",
  "1856": "نوا",
  "1857": "قیم",
  "1858": "لہذ",
  "1859": "خور",
  "1860": "باو",
  "1861": "کیونکہ ",
  "1862": "،ک",
  "1863": "تا ہے ۔ ",
  "1864": "حیرت سے ",
  "1865": "ن کا ",
  "1866": "  میں ",
  "1867": " ایسے ",
  "1868": "جلد ",
  "1869": "سر پر ",
  "1870": "مگر",
  "1871": "پڑا۔ ",
  "1872": "تعل",
  "1873": "نار",
  "1874": "اشر",
  "1875": "وہ بھی ",
  "1876": "راز",
  "1877": "و۔ ",
  "1878": "تو یہ ",
  "1879": "فری",
  "1880": "پار",
  "1881": "ٹانگ",
  "1882": "مطاب",
  "1883": "حض",
  "1884": "آنکھوں میں ",
  "1885": "سے کہا۔ ",
  "1886": " آج ",
  "1887": "خدا",
  "1888": "مل کر ",
  "1889": " کے لیے ",
  "1890": "یا تھا۔ ",
  "1891": "مدد کر",
  "1892": " کاٹ",
  "1893": "جواب دیا۔ ",
  "1894": "شکریہ ",
  "1895": "ڑے ",
  "1896": "سیٹھ",
  "1897": " کیوں",
  "1898": "بندر",
  "1899": "ضرور",
  "1900": "ٹھنڈ",
  "1901": "ڈال ",
  "1902": "ویسے ",
  "1903": "عث",
  "1904": "ے کی",
  "1905": "قائ",
  "1906": "یعنی ",
  "1907": "بو ",
  "1908": "دھا ",
  "1909": "میں کوئی ",
  "1910": "تے اور ",
  "1911": "زادی",
  "1912": "نکال ",
  "1913": "ڈ ",
  "1914": "،”",
  "1915": "بولی:”",
  "1916": "سع",
  "1917": "وہیں ",
  "1918": "والی ",
  "1919": "لہذا ",
  "1920": "انس",
  "1921": "ٹھی ",
  "1922": "نہ ک",
  "1923": "دروازہ",
  "1924": "کری ",
  "1925": "ائی اور ",
  "1926": "گھونس",
  "1927": "ہوں،",
  "1928": "بھوک ",
  "1929": " گا",
  "1930": "پہلی ",
  "1931": "معام",
  "1932": "سلی",
  "1933": "پہاڑ",
  "1934": " ”ک",
  "1935": "میز ",
  "1936": " کھڑے ",
  "1937": "  یہ ",
  "1938": "گوش ",
  "1939": "شادی ",
  "1940": "لومڑ",
  "1941": "چر",
  "1942": "قیق",
  "1943": " کیا کر",
  "1944": "امی نے ",
  "1945": "خرگوش ",
  "1946": "دید ",
  "1947": "سیا",
  "1948": "بندر ",
  "1949": "جت",
  "1950": "سزا ",
  "1951": " چو",
  "1952": "سے ایک ",
  "1953": "زندگی",
  "1954": " ہر ",
  "1955": "جب وہ ",
  "1956": "نس",
  "1957": "نکال کر ",
  "1958": "دریا",
  "1959": "تعال",
  "1960": " دی",
  "1961": "بازار ",
  "1962": "نس ",
  "1963": "حرک",
  "1964": "نے اپنے ",
  "1965": "بچو! ",
  "1966": "د کو ",
  "1967": "تو ا",
  "1968": "پھل",
  "1969": "جس سے ",
  "1970": "طاق",
  "1971": "رات کو ",
  "1972": "تکلی",
  "1973": "پنج",
  "1974": "درخت کے ",
  "1975": "بات پر ",
  "1976": "ہاتھی ",
  "1977": "ہے؟“ ",
  "1978": "بولے:”",
  "1979": "ڈو",
  "1980": "ناش",
  "1981": "وں۔ ",
  "1982": "جھاڑ",
  "1983": "فہ ",
  "1984": "ائب ",
  "1985": " آپ ",
  "1986": "دوپہ",
  "1987": "بیٹی ",
  "1988": "نگ ",
  "1989": "نے کے بعد",
  "1990": "نہیں ہے۔ ",
  "1991": "پیٹ",
  "1992": "موس",
  "1993": "روی",
  "1994": "واقعی ",
  "1995": "اس لیے ",
  "1996": "کھی",
  "1997": "دوران ",
  "1998": "خدا ",
  "1999": "ہوئ",
  "2000": "شاید ",
  "2001": "شام ",
  "2002": "آپ کا ",
  "2003": "مجب",
  "2004": " جو",
  "2005": "نئے ",
  "2006": "یار ",
  "2007": "فرو",
  "2008": "اؤ",
  "2009": "ب سے ",
  "2010": "درمی",
  "2011": "لیا اور ",
  "2012": " جا",
  "2013": "زو",
  "2014": "پیس",
  "2015": "سب کو ",
  "2016": "تعلیم ",
  "2017": "استع",
  "2018": "تے ہیں ۔ ",
  "2019": "دیا اور ",
  "2020": "آئی",
  "2021": "تے ہیں کہ ",
  "2022": "بال ",
  "2023": "مید",
  "2024": "ل کا ",
  "2025": "جسے ",
  "2026": "باندھ",
  "2027": "طال",
  "2028": "ہوئی",
  "2029": "بزرگ",
  "2030": "بہت ہی ",
  "2031": "لڑکے ",
  "2032": "پچھ",
  "2033": "بیٹھ کر ",
  "2034": "ڑا ",
  "2035": "دوسرا ",
  "2036": "تاہے۔ ",
  "2037": "جازت ",
  "2038": "لوگوں کو ",
  "2039": "مجھے ک",
  "2040": "بھری ",
  "2041": "چہر",
  "2042": "میاں",
  "2043": "عور",
  "2044": "علیہ ",
  "2045": "معافی ",
  "2046": " ادھر ",
  "2047": "چکا تھا۔ ",
  "2048": "لوٹ",
  "2049": "ضروری ",
  "2050": "سفید ",
  "2051": "اک ",
  "2052": "توجہ ",
  "2053": "یں تو ",
  "2054": "مارے ",
  "2055": "مہم",
  "2056": "پڑو",
  "2057": "لوگوں نے ",
  "2058": "عمر",
  "2059": "گھوم",
  "2060": "دنیا",
  "2061": "آتی ",
  "2062": "ام کر",
  "2063": "غصہ ",
  "2064": "بیمار ",
  "2065": "غائب ",
  "2066": "راستہ ",
  "2067": " جس ",
  "2068": "طریق",
  "2069": "طل",
  "2070": "تق",
  "2071": "چھوڑ کر ",
  "2072": "آئے۔ ",
  "2073": "ہو گئ",
  "2074": "ہو،",
  "2075": "لگا کر ",
  "2076": "شور ",
  "2077": "جود",
  "2078": "میں ک",
  "2079": "سمی",
  "2080": "رف",
  "2081": "سار",
  "2082": "تے،",
  "2083": "دما",
  "2084": " اچانک ",
  "2085": "مزہ ",
  "2086": "نے کا",
  "2087": " کمرے میں ",
  "2088": "دست",
  "2089": "تا کہ ",
  "2090": "یم ",
  "2091": "ندہ ",
  "2092": "بہتر ",
  "2093": "ین ",
  "2094": "زما",
  "2095": "گئی اور ",
  "2096": "طبی",
  "2097": " اس وقت ",
  "2098": "خاموش",
  "2099": "ن اور ",
  "2100": "عام",
  "2101": "ناک",
  "2102": "تھیں ",
  "2103": "وٴ",
  "2104": "تا رہ",
  "2105": " ایک دن",
  "2106": "تی ہوئی ",
  "2107": "گھر کی ",
  "2108": "پیدا ",
  "2109": "سچ",
  "2110": "مرتبہ ",
  "2111": " انسان",
  "2112": "ہوتا ہے۔ ",
  "2113": "سہی",
  "2114": "رہی تھیں۔ ",
  "2115": "نے کی وجہ سے ",
  "2116": "نیا ",
  "2117": "اماں ",
  "2118": "شخص ",
  "2119": "سائیکل ",
  "2120": "دادی ",
  "2121": "شروع ",
  "2122": "تھوڑا ",
  "2123": "خوف",
  "2124": "لوگوں کے ",
  "2125": "سب کچھ ",
  "2126": "نقصان ",
  "2127": "نے ایک ",
  "2128": "رہے ہیں۔ ",
  "2129": "دیا کہ ",
  "2130": "نز",
  "2131": "پسند",
  "2132": "اج",
  "2133": "سمجھ میں ",
  "2134": " گئی۔ ",
  "2135": " کو ایک ",
  "2136": " جل",
  "2137": "تب ",
  "2138": "ر پر ",
  "2139": "نہایت ",
  "2140": "مسئ",
  "2141": "ملکہ ",
  "2142": "صلی ",
  "2143": "ادھر ادھر ",
  "2144": "لاکھ",
  "2145": "وہ ایک ",
  "2146": "اچانک ",
  "2147": "پریشان",
  "2148": "ریا",
  "2149": "امتح",
  "2150": "اچانک",
  "2151": "خطر",
  "2152": " او",
  "2153": "تیس",
  "2154": "بول ",
  "2155": "شکار ",
  "2156": "راہ ",
  "2157": "پھول ",
  "2158": "پال",
  "2159": " کا نام ",
  "2160": " اسکول ",
  "2161": "چھوڑ د",
  "2162": "سوچا کہ ",
  "2163": "گھنٹ",
  "2164": "مزید ",
  "2165": "س کی ",
  "2166": "لیاں ",
  "2167": " بھ",
  "2168": "سوار ",
  "2169": "موبائ",
  "2170": "درخت پر ",
  "2171": "صل ",
  "2172": "گلی ",
  "2173": " کہان",
  "2174": " بادشاہ نے ",
  "2175": "سنی ",
  "2176": "عورت ",
  "2177": "عبد",
  "2178": "ہے تو ",
  "2179": " گیا ",
  "2180": "تصو",
  "2181": "اس وقت ",
  "2182": "آ کر ",
  "2183": "ہد",
  "2184": "انڈ",
  "2185": "جوتے ",
  "2186": "اللہ علیہ ",
  "2187": "نے بھی ",
  "2188": "تو اس کی ",
  "2189": "دیکھو ",
  "2190": "قدر ",
  "2191": "سمجھ ",
  "2192": "......",
  "2193": "لا کر ",
  "2194": "تبدی",
  "2195": "، لیکن ",
  "2196": " اللہ",
  "2197": "سوچ کر ",
  "2198": "س کر",
  "2199": "نیند ",
  "2200": "دی اور ",
  "2201": " جنگ",
  "2202": "یوں کے ",
  "2203": " یہ سن کر ",
  "2204": " انس",
  "2205": " کہنے لگ",
  "2206": "خرگوش",
  "2207": " ار",
  "2208": "سنائی ",
  "2209": "ہ کا ",
  "2210": "مست",
  "2211": "بیٹے ",
  "2212": "تا تھا کہ ",
  "2213": "دنیا میں ",
  "2214": "ریف",
  "2215": "م کو ",
  "2216": "یں-",
  "2217": "شکار",
  "2218": "ے کی طرف ",
  "2219": "سامان ",
  "2220": "م کا ",
  "2221": "دے کر ",
  "2222": "قو",
  "2223": "پھو",
  "2224": "اے ",
  "2225": "نئی ",
  "2226": " جیسے ",
  "2227": "باری ",
  "2228": "مائ",
  "2229": "وہاں",
  "2230": "اں",
  "2231": "تمھیں ",
  "2232": "وزیر",
  "2233": "بتاؤ",
  "2234": "بے حد ",
  "2235": "ی- ",
  "2236": "پہلے ہی ",
  "2237": " کش",
  "2238": "روشنی ",
  "2239": "دروازے پر ",
  "2240": "ہوں گ",
  "2241": " کرنا چاہ",
  "2242": "فیصلہ",
  "2243": "ساتھ ہی ",
  "2244": " اس کو ",
  "2245": "فاق",
  "2246": "نے اپنی ",
  "2247": "خالی ",
  "2248": "ہوتی ہے۔ ",
  "2249": " کو اپنی ",
  "2250": "عمل",
  "2251": "فوظ",
  "2252": "بتایا ",
  "2253": "ندھ",
  "2254": "چاروں ",
  "2255": " مر",
  "2256": "آتا ",
  "2257": "داش",
  "2258": "گھوڑا ",
  "2259": "دوں ",
  "2260": "تو اس کے ",
  "2261": " را",
  "2262": "وا ",
  "2263": " کیا کہ ",
  "2264": "جنگل کے ",
  "2265": "صلی اللہ علیہ ",
  "2266": "لی۔ ",
  "2267": "غ ",
  "2268": "اتنے ",
  "2269": "وار",
  "2270": "غور سے ",
  "2271": "تھے-",
  "2272": "داری ",
  "2273": "پیٹ ",
  "2274": "رے سے ",
  "2275": " ”میں ",
  "2276": "نظروں سے ",
  "2277": "تے تھے ",
  "2278": "رز",
  "2279": "چھل",
  "2280": "انٹ",
  "2281": "فون ",
  "2282": "لو۔ ",
  "2283": "سوچا ",
  "2284": "بادشاہ کو ",
  "2285": " ”ارے ",
  "2286": "مذ",
  "2287": "فائدہ ",
  "2288": "زین",
  "2289": "نے کہا کہ ",
  "2290": "اسٹر ",
  "2291": " وہاں ",
  "2292": "خاند",
  "2293": "دیں۔ ",
  "2294": "آزاد",
  "2295": "ایسا",
  "2296": "مختلف ",
  "2297": "اجازت ",
  "2298": "پانچ",
  "2299": "تو ایک ",
  "2300": "ہ کو ",
  "2301": "ہے؟“",
  "2302": "جس میں ",
  "2303": "اکی",
  "2304": "زندہ ",
  "2305": "انعام ",
  "2306": "خری ",
  "2307": "حالت ",
  "2308": "اظ",
  "2309": "ٹیاں ",
  "2310": "مبار",
  "2311": "ماہ ",
  "2312": "یا:”",
  "2313": "چہرے پر ",
  "2314": "شاخ",
  "2315": "جھوٹ ",
  "2316": "یہ بھی ",
  "2317": "جان! ",
  "2318": "تلاش میں ",
  "2319": " اب وہ ",
  "2320": "گئیں۔ ",
  "2321": "ل کر ",
  "2322": "شک ",
  "2323": "مطل",
  "2324": "حق",
  "2325": "چال",
  "2326": "دربار ",
  "2327": "،لیکن ",
  "2328": "باپ ",
  "2329": "جاری ",
  "2330": " کوئی",
  "2331": "ادا ",
  "2332": "گرد ",
  "2333": " ”یہ ",
  "2334": " اس طرح",
  "2335": "پکڑ کر ",
  "2336": "آوازیں ",
  "2337": "خدم",
  "2338": " اس پر ",
  "2339": " مع",
  "2340": " کا ایک ",
  "2341": "دیتی ",
  "2342": ": ",
  "2343": "حیرت ",
  "2344": "ذہن میں ",
  "2345": " کبھی",
  "2346": " می",
  "2347": "مٹھ",
  "2348": "ترکی",
  "2349": "بولی ",
  "2350": "موقع",
  "2351": "نہیں تھا۔ ",
  "2352": "حفاظ",
  "2353": "خیال رکھ",
  "2354": "ل کو ",
  "2355": "ب کے ",
  "2356": "ار کر ",
  "2357": "راز ",
  "2358": "بلا ",
  "2359": "محفوظ",
  "2360": "اٹھا کر ",
  "2361": "ذری",
  "2362": "چڑیا",
  "2363": "دعو",
  "2364": " ایسی ",
  "2365": "جائے گا۔ ",
  "2366": " کو ا",
  "2367": "بھیج",
  "2368": " دوسرے ",
  "2369": "دروازہ ",
  "2370": "پرا",
  "2371": "سوس ",
  "2372": "چمک",
  "2373": "خواب ",
  "2374": "رہا",
  "2375": "یہ سب ",
  "2376": "مکن ",
  "2377": "ٹھیک",
  "2378": "پرندے ",
  "2379": " کرو۔ ",
  "2380": "بدل ",
  "2381": "جانے ",
  "2382": "لام",
  "2383": " شیر ",
  "2384": "زاد ",
  "2385": "وہ اپنی ",
  "2386": "ر کو ",
  "2387": "مذاق",
  "2388": "حوال",
  "2389": "قدر",
  "2390": "تہ",
  "2391": " کسی کو ",
  "2392": "وعد",
  "2393": "تا ہوں ",
  "2394": " اتنا ",
  "2395": "جادوگر",
  "2396": "لے کے ",
  "2397": "بات کا ",
  "2398": " کرتے ہوئے ",
  "2399": "پھل ",
  "2400": "ادہ ",
  "2401": "خلا",
  "2402": "ہوں کہ ",
  "2403": "حاصل کر",
  "2404": "بھیڑی",
  "2405": "لوگوں کی ",
  "2406": "ہف",
  "2407": "باہر",
  "2408": "سہ",
  "2409": "خرید ",
  "2410": "تا ہے کہ ",
  "2411": "دفعہ ",
  "2412": "ملی ",
  "2413": "سل ",
  "2414": "نج",
  "2415": "بات سن کر ",
  "2416": "ہوش",
  "2417": "ط ",
  "2418": "علاوہ ",
  "2419": "اٹھا",
  "2420": " کے گھر ",
  "2421": "آگیا۔ ",
  "2422": "ضی ",
  "2423": "شدید ",
  "2424": "مین",
  "2425": " احمد",
  "2426": "تا رہا۔ ",
  "2427": "سانس ",
  "2428": "ت نے ",
  "2429": "عقل ",
  "2430": "نمبر ",
  "2431": "نوٹ",
  "2432": "گھبرا",
  "2433": "رمض",
  "2434": "بچے کو ",
  "2435": "اتر",
  "2436": "جنا",
  "2437": "طبیع",
  "2438": "اخت",
  "2439": "نے لگی ",
  "2440": " اس کے بعد ",
  "2441": "نصیح",
  "2442": "مدد ",
  "2443": "اٹھا ",
  "2444": "تقریبا ",
  "2445": "لڑکی",
  "2446": "روزہ ",
  "2447": "ہوئے۔ ",
  "2448": "تے ہوئے کہا:”",
  "2449": "رکھے ",
  "2450": "غصے سے ",
  "2451": "گاؤں میں ",
  "2452": "نور",
  "2453": "ہوگیا ",
  "2454": "یں- ",
  "2455": "وں کے ساتھ ",
  "2456": "آخری ",
  "2457": "رک ",
  "2458": " جائ",
  "2459": " کی اور ",
  "2460": " انسان ",
  "2461": "د کا ",
  "2462": " اس میں ",
  "2463": " سو",
  "2464": "ننھے ",
  "2465": "یا- ",
  "2466": "راستے میں ",
  "2467": "ہل ",
  "2468": "قابل ",
  "2469": "آپ کو",
  "2470": "نہیں کر سک",
  "2471": "نیک ",
  "2472": "ہان",
  "2473": "مشور",
  "2474": "رکھ کر ",
  "2475": "چاہیے ",
  "2476": "ارہ ",
  "2477": "طالب ",
  "2478": "خواہش ",
  "2479": "مسا",
  "2480": "قدم ",
  "2481": "خالہ ",
  "2482": "اسے ک",
  "2483": "اپنی",
  "2484": "قدم",
  "2485": "رو ",
  "2486": "جھک",
  "2487": " گئے ",
  "2488": "دیکھا اور ",
  "2489": "شام کو ",
  "2490": " ام",
  "2491": "برت",
  "2492": "بہن",
  "2493": " کی آواز ",
  "2494": "حل ",
  "2495": "نو ",
  "2496": "رہے تھے ",
  "2497": "بھائی! ",
  "2498": "ار میں ",
  "2499": "احمد",
  "2500": "ہوتے ",
  "2501": "شہر میں ",
  "2502": "نکلا ",
  "2503": "خاص ",
  "2504": "بارش",
  "2505": "ظا",
  "2506": "ہ کیا۔ ",
  "2507": "قیمتی ",
  "2508": " کہا:”",
  "2509": "فون",
  "2510": "نوجوان ",
  "2511": "گند",
  "2512": "وقو",
  "2513": "لینے ",
  "2514": "پہنچا",
  "2515": "میرے پاس ",
  "2516": "اسکول",
  "2517": " کی ک",
  "2518": "گ ",
  "2519": " کسان ",
  "2520": "گئے اور ",
  "2521": " بے ",
  "2522": "گھر کا ",
  "2523": "منظر ",
  "2524": "بوڑھے ",
  "2525": "والد ",
  "2526": "ختم",
  "2527": " بل",
  "2528": " کیے ",
  "2529": "بوت",
  "2530": "پی ",
  "2531": "ائے اور ",
  "2532": "دلچ",
  "2533": "تھا کہ",
  "2534": "سرک",
  "2535": "تار ",
  "2536": "پڑھائی ",
  "2537": "جال",
  "2538": "ہے جو ",
  "2539": "یہ سن کر ",
  "2540": "چلتے ",
  "2541": "وہ اس ",
  "2542": "والدہ ",
  "2543": "ے؟",
  "2544": "جہا",
  "2545": "رہی۔ ",
  "2546": "ہوش ",
  "2547": "جنگل ",
  "2548": "پانی میں ",
  "2549": "سڑک ",
  "2550": "ی میں ",
  "2551": "ماری ",
  "2552": "جبکہ ",
  "2553": "حقیق",
  "2554": "سیکھ",
  "2555": "آف",
  "2556": "تمہیں",
  "2557": "زدہ ",
  "2558": "ہو جائ",
  "2559": "مضبو",
  "2560": " کیلئے ",
  "2561": "اور کہا",
  "2562": "جن ",
  "2563": " انہیں ",
  "2564": " تو ",
  "2565": " کرا",
  "2566": "حیران رہ ",
  "2567": "تو بہت ",
  "2568": "خواہ ",
  "2569": "د اور ",
  "2570": "چچا ",
  "2571": "فیسر ",
  "2572": "\"-",
  "2573": "شامل ",
  "2574": "اونچ",
  "2575": "بوڑھا ",
  "2576": "ہو گی۔ ",
  "2577": "نص",
  "2578": "باد ",
  "2579": "ہنس ",
  "2580": "یہاں",
  "2581": " میرا ",
  "2582": "تھک ",
  "2583": "رہے تھے کہ ",
  "2584": "اکثر ",
  "2585": "حق ",
  "2586": "راف",
  "2587": "تی اور ",
  "2588": "سفر ",
  "2589": "صحی",
  "2590": " ”ہاں ",
  "2591": "اس طرح",
  "2592": "مچھلی ",
  "2593": " کے کنارے ",
  "2594": "خود کو ",
  "2595": "آہستہ آہستہ ",
  "2596": "سورج",
  "2597": " گئے۔ ",
  "2598": "اپنے گھر ",
  "2599": "گردن ",
  "2600": " اگلے دن ",
  "2601": "نٹی ",
  "2602": "پہنچ کر ",
  "2603": "بری",
  "2604": "شرمندہ ",
  "2605": "سی پر ",
  "2606": "درد ",
  "2607": "یہ ہے کہ ",
  "2608": " کسی نے ",
  "2609": "غریب",
  "2610": "چوہے ",
  "2611": "شاہی ",
  "2612": "پیاری ",
  "2613": "رہا تھا،",
  "2614": "علاج",
  "2615": "رہی ہے۔ ",
  "2616": "نرم ",
  "2617": "ختہ ",
  "2618": "پریشانی ",
  "2619": "مکمل ",
  "2620": "ی-",
  "2621": "شع",
  "2622": "قہ",
  "2623": "دولت ",
  "2624": "پکٹر ",
  "2625": " کاش",
  "2626": "صاحب! ",
  "2627": "ناراض",
  "2628": "پرن",
  "2629": "چور ",
  "2630": "عمل ",
  "2631": "چائے ",
  "2632": " اچھے ",
  "2633": "باور",
  "2634": "نانی ",
  "2635": "اتر ",
  "2636": "بیگم ",
  "2637": "نے کیلئے ",
  "2638": "لڑکی ",
  "2639": "آگیا ",
  "2640": "لے پر ",
  "2641": "اعل",
  "2642": "مری",
  "2643": "طوطا ",
  "2644": " پہلے ",
  "2645": "چلو ",
  "2646": "گاؤں کے ",
  "2647": "بھرے ",
  "2648": " کھلا",
  "2649": "بہت پریشان ",
  "2650": "گی اور ",
  "2651": "ہوتا ہے ",
  "2652": "قط",
  "2653": " جب وہ ",
  "2654": "ہمت ",
  "2655": "ہر وقت ",
  "2656": "ترکیب ",
  "2657": "جھوٹ",
  "2658": "ہاتھ سے ",
  "2659": "جاتا۔ ",
  "2660": " خ",
  "2661": "لٹ",
  "2662": "شکاری ",
  "2663": " احمد ",
  "2664": "تا ہے،",
  "2665": "ے میں",
  "2666": "جان نے ",
  "2667": "رہی تھی کہ ",
  "2668": "شری",
  "2669": "لکھا ",
  "2670": "نتی",
  "2671": " جہاں ",
  "2672": "مصی",
  "2673": "باوجود ",
  "2674": "طرف سے ",
  "2675": "جمع ",
  "2676": "یکٹ",
  "2677": "آنکھوں سے ",
  "2678": "مکھ",
  "2679": "شکای",
  "2680": "فیصل",
  "2681": "جواب دیا",
  "2682": "جیسے ہی ",
  "2683": "یں گے اور ",
  "2684": "مزور ",
  "2685": " کھانے ",
  "2686": "ی! ",
  "2687": "لمبی ",
  "2688": "سنبھال",
  "2689": "آن ",
  "2690": "وسل",
  "2691": "مزے ",
  "2692": "یہاں سے ",
  "2693": "واقعہ ",
  "2694": " بر",
  "2695": "منہ میں ",
  "2696": " تھوڑی دیر ",
  "2697": "شہر",
  "2698": "افی ",
  "2699": "تیار",
  "2700": "شہزادی",
  "2701": "گرم ",
  "2702": " دادا ",
  "2703": "ہو گیا اور ",
  "2704": "پیار ",
  "2705": "برداش",
  "2706": "پہل",
  "2707": "ذریع",
  "2708": "چھٹی",
  "2709": "متا",
  "2710": "پرنسپ",
  "2711": "منگ",
  "2712": "نا اور ",
  "2713": "تھی- ",
  "2714": "دیر میں ",
  "2715": " اتنے ",
  "2716": "مت",
  "2717": "پڑی۔ ",
  "2718": "تھا، ",
  "2719": "ناز",
  "2720": "مایو",
  "2721": "تو نہیں ",
  "2722": "ہزار",
  "2723": "سکے ",
  "2724": "ہنسی ",
  "2725": "پیش ",
  "2726": " جان",
  "2727": "روزانہ ",
  "2728": "گی سے ",
  "2729": "نا،",
  "2730": "تکلیف ",
  "2731": " اگر",
  "2732": "پھر بھی ",
  "2733": "ائع",
  "2734": "ٹائ",
  "2735": "یوں کی ",
  "2736": "حاصل",
  "2737": "ی پر ",
  "2738": "ار کے ",
  "2739": "حسن ",
  "2740": "ہو جاتی ",
  "2741": "ڈاکٹر",
  "2742": "بھا",
  "2743": "وغیر",
  "2744": "یں گے،",
  "2745": " کمر",
  "2746": "ناہ ",
  "2747": "آیا کہ ",
  "2748": "ہٹ ",
  "2749": "بیل ",
  "2750": "شد",
  "2751": "م اور ",
  "2752": "جس کے ",
  "2753": "چھلانگ",
  "2754": "بارش ",
  "2755": "رہتا تھا۔ ",
  "2756": "اگلے ",
  "2757": " اٹھا",
  "2758": "چھی",
  "2759": "ب کی ",
  "2760": "نے سے پہلے ",
  "2761": "میں کام",
  "2762": "ہو گیا تھا۔ ",
  "2763": "یہ تو ",
  "2764": "تک پہنچ",
  "2765": " کوا ",
  "2766": "مزدور",
  "2767": "ایک دوسر",
  "2768": "شاید",
  "2769": "وں کہ ",
  "2770": "بطخ",
  "2771": "دیے ",
  "2772": "خلو",
  "2773": "بوڑھی ",
  "2774": " اندر ",
  "2775": "دماغ",
  "2776": "پتھر ",
  "2777": "نزد",
  "2778": "وغیرہ ",
  "2779": "تے ہو۔ ",
  "2780": "اور وہ ",
  "2781": " کو دیکھ کر ",
  "2782": " کتنی ",
  "2783": "بادشاہ کی ",
  "2784": " کر لی",
  "2785": "روک",
  "2786": "بچوں کو",
  "2787": "پیار سے ",
  "2788": "خاتو",
  "2789": "حام",
  "2790": "عادت ",
  "2791": "پہلے ک",
  "2792": "پانچ ",
  "2793": "یا-",
  "2794": "باہر نکل ",
  "2795": "بد ",
  "2796": "احمد ",
  "2797": "بچوں نے ",
  "2798": "چوہ",
  "2799": "و،",
  "2800": "ایک دن ",
  "2801": " نہیں ",
  "2802": "بیوی",
  "2803": "سے کہا کہ ",
  "2804": "سوی",
  "2805": "کہ",
  "2806": "سکون ",
  "2807": "پاپا ",
  "2808": "آگئی ",
  "2809": "ہوگئی ",
  "2810": " کا کوئی ",
  "2811": " ہم",
  "2812": "اذ",
  "2813": " امی نے ",
  "2814": "پھر وہ ",
  "2815": "پھینک ",
  "2816": "واپس آ",
  "2817": "تجھ",
  "2818": "بنایا ",
  "2819": "یوں میں ",
  "2820": "خانے میں ",
  "2821": "جذ",
  "2822": "استعمال",
  "2823": "لیں ",
  "2824": "مچھلی",
  "2825": " لیا ",
  "2826": "شہور ",
  "2827": "ے؟“ ",
  "2828": "تمام",
  "2829": " صبح",
  "2830": "آیا تو ",
  "2831": "دھی ",
  "2832": "پود",
  "2833": "آپ سے ",
  "2834": " دو ",
  "2835": "بوجھ",
  "2836": "پائی ",
  "2837": "لہجے میں ",
  "2838": "خوشی خوشی ",
  "2839": " کاغذ",
  "2840": "سلس",
  "2841": "19",
  "2842": "س سے ",
  "2843": "مد نے ",
  "2844": "اون",
  "2845": "بھی نہ ",
  "2846": " یوں ",
  "2847": "رہے ہو",
  "2848": "شکریہ ادا",
  "2849": " کہہ کر ",
  "2850": "ہے وہ ",
  "2851": "مطلب ",
  "2852": " مار",
  "2853": "ران",
  "2854": " بال",
  "2855": "باورچی ",
  "2856": " کتاب ",
  "2857": "محنت کر",
  "2858": " لگ",
  "2859": " کو اس ",
  "2860": "دیے۔ ",
  "2861": "چھڑ",
  "2862": "چہرہ ",
  "2863": "چٹ",
  "2864": " ”کیا ",
  "2865": "برابر ",
  "2866": "تیاری",
  "2867": "بنے ",
  "2868": "قاس",
  "2869": "واپس",
  "2870": "حاصل ",
  "2871": "جاؤ۔ ",
  "2872": "بار بار ",
  "2873": " گر",
  "2874": "سے آ",
  "2875": "بیٹھی ",
  "2876": "تم سے ",
  "2877": "حل",
  "2878": "بکر",
  "2879": "گم ",
  "2880": "صحت ",
  "2881": "مشورہ ",
  "2882": "بے چی",
  "2883": "اگر",
  "2884": "مطابق",
  "2885": "شار",
  "2886": "ابو نے ",
  "2887": "مے ",
  "2888": "نانچہ ",
  "2889": "اس کے پاس ",
  "2890": "ماں کی ",
  "2891": "ہسپ",
  "2892": "کل",
  "2893": "حسی",
  "2894": " کی کوئی ",
  "2895": "جس کی ",
  "2896": "بت ",
  "2897": "ائیں",
  "2898": "یت",
  "2899": "بنا کر ",
  "2900": "رہے۔ ",
  "2901": "اماں",
  "2902": "آسم",
  "2903": "تھی-",
  "2904": "تا تھا،",
  "2905": " کھڑی ",
  "2906": "میں اپنے ",
  "2907": " کان",
  "2908": " کھیل ",
  "2909": " کو دیکھ",
  "2910": "نے کچھ ",
  "2911": "جیسی ",
  "2912": "تی سے ",
  "2913": "گیا،",
  "2914": "خرچ",
  "2915": "میں سے ",
  "2916": "چرا",
  "2917": "  اس نے ",
  "2918": "خوبصور",
  "2919": "غرض",
  "2920": "موبائل ",
  "2921": " ”جی ",
  "2922": "پھینک",
  "2923": "داد ",
  "2924": " کھولا ",
  "2925": " کھلا ",
  "2926": "شوق ",
  "2927": "تس",
  "2928": "مگر وہ ",
  "2929": "تعالی ",
  "2930": "ثاب",
  "2931": "شاء",
  "2932": "قیمت ",
  "2933": "محنت ",
  "2934": "بچا",
  "2935": " بند",
  "2936": "مینڈ",
  "2937": "دشم",
  "2938": "بھرا ",
  "2939": "جیسا ",
  "2940": "معصو",
  "2941": " یہاں ",
  "2942": "موسم ",
  "2943": "باعث",
  "2944": "لایا ",
  "2945": " جائے ",
  "2946": "رام سے ",
  "2947": "رع",
  "2948": "زبان ",
  "2949": " کھول کر ",
  "2950": "مقص",
  "2951": "آئندہ ",
  "2952": "بہادر ",
  "2953": "رہنا ",
  "2954": "جانے کا ",
  "2955": "جھی",
  "2956": " کار ",
  "2957": "ری کے ",
  "2958": "لگے ",
  "2959": "بھی کر",
  "2960": "میں کچھ ",
  "2961": "تعریف",
  "2962": "صاحب کے ",
  "2963": " کتنا ",
  "2964": "کھا ",
  "2965": "خوش ہو",
  "2966": "حاض",
  "2967": "سنہری ",
  "2968": "دبا",
  "2969": "زور زور سے ",
  "2970": " بہت ",
  "2971": "دریا ",
  "2972": "درخت کی ",
  "2973": " پیارے ",
  "2974": "دربار میں ",
  "2975": "ٹیچ",
  "2976": "چاند ",
  "2977": "ہ کیا کہ ",
  "2978": "لگی ",
  "2979": " کرنے ",
  "2980": "پیدا",
  "2981": "س نے ",
  "2982": "شکل ",
  "2983": "ماج",
  "2984": "دکان ",
  "2985": "دینا ",
  "2986": "محسوس",
  "2987": "مسئلہ ",
  "2988": "چونکہ ",
  "2989": "حضور ",
  "2990": "بولے۔ ",
  "2991": "لائے ",
  "2992": " ابو ",
  "2993": "راصل ",
  "2994": "آ گیا۔ ",
  "2995": "چھپا ",
  "2996": "تف",
  "2997": "پہلا ",
  "2998": "گزار ",
  "2999": "تی،",
  "3000": " اد",
  "3001": "جسم",
  "3002": "ندو",
  "3003": "بولی۔ ",
  "3004": " سر",
  "3005": " کتابیں ",
  "3006": "مہر",
  "3007": "ممکن ",
  "3008": " کھانا کھا",
  "3009": "سکتی ",
  "3010": " گئ",
  "3011": "ب نے ",
  "3012": " کرنے کی ",
  "3013": "شی ",
  "3014": "گا کہ ",
  "3015": "امہ ",
  "3016": "جاتا ہے۔ ",
  "3017": "یار",
  "3018": " کہنا ",
  "3019": "خز",
  "3020": "چوہا ",
  "3021": " کا کام ",
  "3022": "نکل کر ",
  "3023": "وں کے ساتھ",
  "3024": "تیں۔ ",
  "3025": "تازہ ",
  "3026": "بلند ",
  "3027": "گہری ",
  "3028": "ہو گا ",
  "3029": "پہچ",
  "3030": "دوستی ",
  "3031": "نے کی کوشش کر",
  "3032": "انتق",
  "3033": "سکول",
  "3034": "یقینا ",
  "3035": "خصوص",
  "3036": "ہونا ",
  "3037": "جام ",
  "3038": "لبا",
  "3039": "چکی ",
  "3040": "نے کہا”",
  "3041": "میز پر ",
  "3042": "لاؤ",
  "3043": "اندھی",
  "3044": "سونا ",
  "3045": "ی تو ",
  "3046": "جاگ",
  "3047": "نے لگیں۔ ",
  "3048": "سب کے ",
  "3049": "تین",
  "3050": "دیں ",
  "3051": "ف نے ",
  "3052": "شن",
  "3053": "شوہر ",
  "3054": "ماں باپ",
  "3055": "انا شروع",
  "3056": "ملاق",
  "3057": "کیوں ",
  "3058": "تا ہوں کہ ",
  "3059": "اللہ تعال",
  "3060": " تم",
  "3061": "ہ کیا ",
  "3062": "غلام ",
  "3063": "ڈھیر ",
  "3064": "ادا کر",
  "3065": "تھک",
  "3066": " اس طرح ",
  "3067": " ش",
  "3068": "بیوی نے ",
  "3069": "ماما ",
  "3070": " لیکن",
  "3071": "اور کہا:”",
  "3072": "سخ",
  "3073": " ”نہیں ",
  "3074": "سوال ",
  "3075": " کو بہت ",
  "3076": "دیکھا",
  "3077": "چکی تھی۔ ",
  "3078": "غصے میں ",
  "3079": "زخمی ",
  "3080": "اس کو",
  "3081": "خاموشی سے ",
  "3082": "سب کی ",
  "3083": "امید ",
  "3084": "فرما",
  "3085": "صندو",
  "3086": "گاؤں",
  "3087": "چونک",
  "3088": "باز",
  "3089": " ڈاکٹر ",
  "3090": "مجھ پر ",
  "3091": "وں گی۔ ",
  "3092": "جھو",
  "3093": "ذکر ",
  "3094": "قب",
  "3095": "بھی بہت ",
  "3096": "تے ہوئے کہا",
  "3097": "ائے۔ ",
  "3098": "اولا",
  "3099": "بندو",
  "3100": "بلو",
  "3101": " و",
  "3102": "فرا",
  "3103": "مشہور ",
  "3104": "تاری",
  "3105": "خون ",
  "3106": "س کا ",
  "3107": "رہا ہے ",
  "3108": "جھون",
  "3109": "تھا وہ ",
  "3110": "تاد ",
  "3111": "بور",
  "3112": "دیکھ کر",
  "3113": "فیصلہ ",
  "3114": "ٹھیک ہے ",
  "3115": "ایک ہی ",
  "3116": "منا",
  "3117": "حسن",
  "3118": "ڈاکو",
  "3119": "تاب",
  "3120": " انداز",
  "3121": " اس لیے ",
  "3122": "لیے ک",
  "3123": "گا-",
  "3124": "دکھا",
  "3125": "معمولی ",
  "3126": "دفت",
  "3127": "میں تمہیں ",
  "3128": "یا کہ",
  "3129": "اٹھ کر ",
  "3130": "سمجھا ",
  "3131": " بس ",
  "3132": " کھل ",
  "3133": " ماں ",
  "3134": "اراد",
  "3135": "ہوتے ہیں۔ ",
  "3136": "آواز میں ",
  "3137": " کروا",
  "3138": "سپاہی ",
  "3139": "میرا",
  "3140": "دلچسپ",
  "3141": "معافی مانگ",
  "3142": "سفر",
  "3143": "رخص",
  "3144": "دعا ",
  "3145": "تھیلی ",
  "3146": "تو کیا ",
  "3147": " کچھ دیر بعد ",
  "3148": " ہمیں ",
  "3149": "دوں گا۔ ",
  "3150": "تعلق ",
  "3151": " بچے ",
  "3152": " چند ",
  "3153": "یا نے ",
  "3154": "رہتے تھے۔ ",
  "3155": "نے کے لئے ک",
  "3156": " کھل",
  "3157": "جی! ",
  "3158": " اص",
  "3159": "ک میں ",
  "3160": "وں کے لئے ",
  "3161": "سب سے پہلے ",
  "3162": "پا ",
  "3163": "تعلق",
  "3164": "نور ",
  "3165": " کچھ ہی ",
  "3166": " کیوں نہ ",
  "3167": " نہ ",
  "3168": " کھینچ",
  "3169": "ان کے پاس ",
  "3170": "یوں کو ",
  "3171": "خت سے ",
  "3172": "گھر وال",
  "3173": "خود ہی ",
  "3174": "مہمان ",
  "3175": "بھلا ",
  "3176": "حر",
  "3177": "ذریعے ",
  "3178": " کے بارے میں ",
  "3179": "ء میں ",
  "3180": "سلو",
  "3181": "ائیں۔ ",
  "3182": "آپس میں ",
  "3183": "دیکھتے ہی ",
  "3184": " کے بعد",
  "3185": "دیوار ",
  "3186": "تا رہا ",
  "3187": "بھئی ",
  "3188": "ننھی ",
  "3189": "منہ سے ",
  "3190": "لے جا",
  "3191": "ے کے پاس ",
  "3192": "خاطر ",
  "3193": "بہت زیادہ ",
  "3194": "بھی اس ",
  "3195": "ندی",
  "3196": "نٹ ",
  "3197": "آئی اور ",
  "3198": "جس پر ",
  "3199": "فاص",
  "3200": "ماسٹر ",
  "3201": "ماح",
  "3202": "یون",
  "3203": "مخاط",
  "3204": "ٹی و",
  "3205": "محبت ",
  "3206": "غلط ",
  "3207": " اس نے اپنے ",
  "3208": "مٹ",
  "3209": "سات ",
  "3210": "سانپ",
  "3211": "آنا ",
  "3212": "جوت",
  "3213": "شوک",
  "3214": "ریچھ",
  "3215": "تو پھر ",
  "3216": "سے کام ",
  "3217": "لینا ",
  "3218": " شی",
  "3219": "غلطی ",
  "3220": "طبیعت ",
  "3221": "نزدیک ",
  "3222": "نہ تھا۔ ",
  "3223": "چونچ",
  "3224": " کھول ",
  "3225": "اثر ",
  "3226": "باغ میں ",
  "3227": " وہ ایک ",
  "3228": "مشکل سے ",
  "3229": "آخر",
  "3230": "عرصہ ",
  "3231": "سیڑھ",
  "3232": "ی کو",
  "3233": "ہونے کے ",
  "3234": "ہاڑی ",
  "3235": "بات کر",
  "3236": "تو کوئی ",
  "3237": "منھ",
  "3238": "سط",
  "3239": "صاحب کو ",
  "3240": "دیر تک ",
  "3241": "ہوا تو ",
  "3242": "بے وقو",
  "3243": "بیس ",
  "3244": "صلا",
  "3245": "منٹ",
  "3246": "جھگڑ",
  "3247": "لمحے ",
  "3248": "لی کے ",
  "3249": "گری",
  "3250": "رخ",
  "3251": " انھ",
  "3252": "کے سے ",
  "3253": "اب میں ",
  "3254": "د کر",
  "3255": "ہ! ",
  "3256": "مت کر",
  "3257": " با",
  "3258": " وہ",
  "3259": "یں:”",
  "3260": "ملنے ",
  "3261": "موجود",
  "3262": " کر رہا ",
  "3263": "آم",
  "3264": " کر لیا ",
  "3265": "مناس",
  "3266": "یہ کیا ",
  "3267": "نی سے ",
  "3268": "آمد",
  "3269": " ہمارے ",
  "3270": "بہترین ",
  "3271": "انداز میں ",
  "3272": "تحفہ ",
  "3273": "دش",
  "3274": "اپنا",
  "3275": " ملکہ ",
  "3276": "تی ہے ",
  "3277": "برتن ",
  "3278": "میڈ",
  "3279": "رحم ",
  "3280": "دوستی",
  "3281": "پڑے۔ ",
  "3282": "باتیں کر",
  "3283": "حالان",
  "3284": "قریبی ",
  "3285": "دانہ ",
  "3286": "ڈی ",
  "3287": "ؤں گا۔ ",
  "3288": "بڑے بڑے ",
  "3289": "عید",
  "3290": "فقیر ",
  "3291": "تی رہ",
  "3292": " کلاس میں ",
  "3293": "عزی",
  "3294": "بھی اپنے ",
  "3295": "جر ",
  "3296": "ذمہ ",
  "3297": " لیا۔ ",
  "3298": " اتنے میں ",
  "3299": "نماز",
  "3300": " کر دی۔ ",
  "3301": "مجبور",
  "3302": "رہے ہیں ",
  "3303": "انھ",
  "3304": "حو",
  "3305": "حالانکہ ",
  "3306": "جانے ک",
  "3307": "آسانی سے ",
  "3308": "بعد میں ",
  "3309": "دونوں کو ",
  "3310": "پرنسپل ",
  "3311": "سے کر",
  "3312": "تربی",
  "3313": "سوچ میں ",
  "3314": "گرا",
  "3315": " وہ اپنے ",
  "3316": "منع",
  "3317": "شان ",
  "3318": "بیٹھ گیا۔ ",
  "3319": "وہ کسی ",
  "3320": " بھی ",
  "3321": "بٹھ",
  "3322": "بھاگ ",
  "3323": "ناد",
  "3324": "جلد ہی ",
  "3325": "درخت سے ",
  "3326": " کی طرف چل ",
  "3327": "ڑ کر ",
  "3328": "صاحب کی ",
  "3329": "ہ نے ",
  "3330": "بات کی ",
  "3331": "دونوں کی ",
  "3332": "آتے ",
  "3333": "زبر",
  "3334": "بھی تو ",
  "3335": "صل",
  "3336": "بھاری ",
  "3337": " “وہ ",
  "3338": "من ",
  "3339": "سے بھی ",
  "3340": "عو",
  "3341": " کاپ",
  "3342": " ننھ",
  "3343": "صلی اللہ علیہ وسل",
  "3344": "ایک اور ",
  "3345": "سبز ",
  "3346": "نکلے ",
  "3347": "گیا کہ ",
  "3348": "ہائی ",
  "3349": "آس ",
  "3350": "لوٹ ",
  "3351": "تسلی ",
  "3352": "سپاہی",
  "3353": "اندازہ ",
  "3354": "ڈال کر ",
  "3355": "بتایا۔ ",
  "3356": "گی،",
  "3357": " ”اچھا ",
  "3358": "غی",
  "3359": "گیا ہے۔ ",
  "3360": "تیر",
  "3361": "تھا کہ وہ ",
  "3362": "ٹھے ",
  "3363": "طوف",
  "3364": "پرانی ",
  "3365": "آٹھ",
  "3366": "ٹی کے ",
  "3367": "معلوم",
  "3368": "صر ",
  "3369": "تی کہ ",
  "3370": "تو مجھے ",
  "3371": "اور اس کے ",
  "3372": "حوص",
  "3373": " کرے ",
  "3374": "آنکھوں میں آنسو ",
  "3375": "ہیں کہ ",
  "3376": "محل ",
  "3377": "سب نے ",
  "3378": "دھے ",
  "3379": "گن",
  "3380": "جس نے ",
  "3381": " یہ کہہ کر ",
  "3382": "دوران",
  "3383": "سچ ",
  "3384": "بہت اچھی ",
  "3385": "مث",
  "3386": "ابا",
  "3387": " اق",
  "3388": "بولے ",
  "3389": "طرف م",
  "3390": "کوئی ",
  "3391": "اٹ",
  "3392": "ثاق",
  "3393": "گرا ",
  "3394": "انتظار کر",
  "3395": "ان کے ساتھ ",
  "3396": " دوسری ",
  "3397": "دیکھتے ",
  "3398": "والدین ",
  "3399": "صرف ایک ",
  "3400": "سے زیادہ ",
  "3401": "سکا۔ ",
  "3402": "رات کے ",
  "3403": "ا کے ",
  "3404": "دلا",
  "3405": "معاملہ ",
  "3406": "ڈرائی",
  "3407": "ساتھی ",
  "3408": "ذہی",
  "3409": "منصو",
  "3410": " کارو",
  "3411": " ان کو ",
  "3412": "لالچ",
  "3413": "ستی ",
  "3414": "فیاں ",
  "3415": "افہ ",
  "3416": "نظریں ",
  "3417": "پروفیسر ",
  "3418": "ٹنک",
  "3419": "دیتا۔ ",
  "3420": "ے کھا",
  "3421": " کی طرف بڑھ",
  "3422": "  مجھے ",
  "3423": "سبق",
  "3424": "امی! ",
  "3425": " کچ",
  "3426": "چلو",
  "3427": " اپنے ک",
  "3428": "محفوظ ",
  "3429": " کی کہ ",
  "3430": "ی تھی اور ",
  "3431": " کیا تھا۔ ",
  "3432": "چیخ ",
  "3433": "ہو اور ",
  "3434": "آرام",
  "3435": "ماں کو ",
  "3436": "زمین",
  "3437": "ان اور ",
  "3438": "بیل",
  "3439": "جمی",
  "3440": "گئے تھے۔ ",
  "3441": "وہ دونوں ",
  "3442": "حالت میں ",
  "3443": "ارث",
  "3444": "ہوں ۔ ",
  "3445": "تے ہوۓ",
  "3446": "پیار",
  "3447": "چلا کہ ",
  "3448": "گوشت ",
  "3449": "لیں۔ ",
  "3450": "ارا",
  "3451": "قل",
  "3452": "کو",
  "3453": "ہوئی تھی۔ ",
  "3454": "ہو گئی",
  "3455": "فقیر",
  "3456": "حاضر ",
  "3457": "خیر ",
  "3458": "جب کہ ",
  "3459": "محل میں ",
  "3460": "لیکن وہ ",
  "3461": "__",
  "3462": "بھوک",
  "3463": "تے ک",
  "3464": "خوشبو ",
  "3465": " کمزور ",
  "3466": " کا شکر ",
  "3467": "چھپا",
  "3468": "سکے۔ ",
  "3469": "نکلا۔ ",
  "3470": "گدھا ",
  "3471": "تیاط",
  "3472": "پرندہ ",
  "3473": "سے کسی ",
  "3474": " کن",
  "3475": "ی تھیں۔ ",
  "3476": "گھنٹی ",
  "3477": "چھوٹی سی ",
  "3478": "پولیس",
  "3479": "تمھاری ",
  "3480": "میری",
  "3481": "رہے تھے ۔ ",
  "3482": "دیا تھا۔ ",
  "3483": "چھوٹے سے ",
  "3484": "ہو چکا ",
  "3485": "بات نہیں ",
  "3486": "انا چاہ",
  "3487": "فرمائ",
  "3488": "مکان ",
  "3489": "بندھ",
  "3490": "بوتر ",
  "3491": "جلدی جلدی ",
  "3492": "مضبوط",
  "3493": " ایک بار ",
  "3494": "چلے گئے۔ ",
  "3495": "  اب ",
  "3496": "نہیں کہ ",
  "3497": "خزانہ ",
  "3498": "ہوئے تھے۔ ",
  "3499": "ر اور ",
  "3500": ") ",
  "3501": "جنگل",
  "3502": "سلط",
  "3503": "ری میں ",
  "3504": "فرح",
  "3505": "ہوگئ",
  "3506": "گا- ",
  "3507": "اپنے گھر",
  "3508": "مئ",
  "3509": "تل",
  "3510": "لفظ",
  "3511": "ذی",
  "3512": "پہچان ",
  "3513": "رکھ ",
  "3514": "چلی گئی۔ ",
  "3515": "تے تھے،",
  "3516": "درخو",
  "3517": "تظ",
  "3518": "چھوٹا سا ",
  "3519": "گون",
  "3520": "بھالو",
  "3521": "ہیں- ",
  "3522": "گیا- ",
  "3523": "آئے اور ",
  "3524": "ہفتے ",
  "3525": "جماعت میں ",
  "3526": "تی ہیں۔ ",
  "3527": "تی ہوں۔ ",
  "3528": "دیوار",
  "3529": "دھڑ",
  "3530": "یم",
  "3531": "وں،",
  "3532": "پانی کی ",
  "3533": "ے، ",
  "3534": "جاؤ گ",
  "3535": "ساتھ ساتھ ",
  "3536": "تص",
  "3537": "کس ",
  "3538": "اصل ",
  "3539": "قربان",
  "3540": "اعلان",
  "3541": "رکھی ",
  "3542": " کیا ہے۔ ",
  "3543": " کیا،",
  "3544": "مطابق ",
  "3545": "زبرد",
  "3546": " پیارے بچو! ",
  "3547": "پڑھ کر ",
  "3548": "بات ہے ",
  "3549": "تھیں اور ",
  "3550": "واہ ",
  "3551": " کامیا",
  "3552": "ہوۓ",
  "3553": "بہت بڑا ",
  "3554": "وں کا",
  "3555": "اس کی طرف ",
  "3556": "بھوت ",
  "3557": " انسپکٹر ",
  "3558": "باتیں سن کر ",
  "3559": "اور کہ",
  "3560": "ے کا",
  "3561": "یوں سے ",
  "3562": "سون",
  "3563": "ور نے ",
  "3564": "قبض",
  "3565": "رشتہ ",
  "3566": "دن بعد ",
  "3567": "سکول میں ",
  "3568": "مانی ",
  "3569": "لمبے ",
  "3570": "ایا",
  "3571": "جائزہ ",
  "3572": "شمار ",
  "3573": "انگو",
  "3574": "میز",
  "3575": "لال ",
  "3576": "فاط",
  "3577": "آیا تھا۔ ",
  "3578": "پہنچا۔ ",
  "3579": "شور م",
  "3580": "دعائیں ",
  "3581": "شخص نے ",
  "3582": "ہرن ",
  "3583": " اٹھا ",
  "3584": "عبدال",
  "3585": "ایک ا",
  "3586": "ور کے ",
  "3587": " ملا",
  "3588": "بھلا",
  "3589": "سبز",
  "3590": "بچے کی ",
  "3591": "درمیان ",
  "3592": "بان ",
  "3593": "چیونٹی",
  "3594": "تصویر",
  "3595": " نی",
  "3596": "صائ",
  "3597": "ہوگئے ",
  "3598": "تھا ،",
  "3599": "قرار ",
  "3600": "ٹ پر ",
  "3601": "اسٹ",
  "3602": "گھڑی ",
  "3603": "بھالو ",
  "3604": "سی کو ",
  "3605": "پوچھ ",
  "3606": "پھیل ",
  "3607": "دیکھا تو",
  "3608": "طا",
  "3609": "بھر کر ",
  "3610": "پرانے ",
  "3611": "بھاگ کر ",
  "3612": "گئی تھی۔ ",
  "3613": "اعت",
  "3614": "اب وہ ",
  "3615": "ملا۔ ",
  "3616": "بہت سی ",
  "3617": "ڈنڈ",
  "3618": " گئی",
  "3619": "گے ",
  "3620": "ہو تو ",
  "3621": "زندگی میں ",
  "3622": "ملک میں ",
  "3623": " کرک",
  "3624": "ثر",
  "3625": " کرنے کا ",
  "3626": "بیمار",
  "3627": "انکار",
  "3628": "نال",
  "3629": "ہدا",
  "3630": "شکی",
  "3631": "تصویر ",
  "3632": "ریح",
  "3633": "ہیں-",
  "3634": " گھر ",
  "3635": "پڑھا",
  "3636": "ت کے لئے ",
  "3637": "وسی",
  "3638": "رہا تھا اور ",
  "3639": " چڑ",
  "3640": "پچھلے ",
  "3641": " کر رہے تھے۔ ",
  "3642": " کر رہا تھا۔ ",
  "3643": " وزیر ",
  "3644": "تنا ",
  "3645": "گیا تو ",
  "3646": "ان کو",
  "3647": "شہر کے ",
  "3648": "والدین",
  "3649": "سی کی ",
  "3650": "سونے کی ",
  "3651": "نماز ",
  "3652": "دونوں نے ",
  "3653": "بن کر ",
  "3654": "لات ",
  "3655": "عمار",
  "3656": "مس ",
  "3657": "چکر ",
  "3658": "زمانے میں ",
  "3659": "ارف",
  "3660": "ریش",
  "3661": "بھیڑیا ",
  "3662": "ج میں ",
  "3663": " کر لیا۔ ",
  "3664": "لوں ",
  "3665": "ٹھنڈی ",
  "3666": "نکھ",
  "3667": "میرے ساتھ ",
  "3668": " کھلی ",
  "3669": "ملازم ",
  "3670": "نوکری ",
  "3671": "حکوم",
  "3672": "ہم سب ",
  "3673": "مناسب ",
  "3674": " عبد",
  "3675": "جانے کی ",
  "3676": " کما",
  "3677": "الفاظ",
  "3678": "سویرے ",
  "3679": "عائ",
  "3680": "باق",
  "3681": "قاض",
  "3682": "حالات ",
  "3683": "ہوئی اور ",
  "3684": " ادا",
  "3685": "مارا ",
  "3686": "اہمی",
  "3687": "قریب ہی ",
  "3688": "ٹے ",
  "3689": "بچا ",
  "3690": "شروع ہو",
  "3691": "پودے ",
  "3692": "ہے! ",
  "3693": "آدمی نے ",
  "3694": "فروخت",
  "3695": "تلاش کر",
  "3696": " ایسا",
  "3697": "گرمی",
  "3698": "ے کام",
  "3699": "دکان پر ",
  "3700": "قد",
  "3701": "دی کے ",
  "3702": "ہال",
  "3703": "سڑک",
  "3704": "بنائی ",
  "3705": "دشمن",
  "3706": " دیا ",
  "3707": " کھانے کی ",
  "3708": "برف",
  "3709": "ناشت",
  "3710": "....! ",
  "3711": "لے سے ",
  "3712": "ہمیشہ",
  "3713": "تحف",
  "3714": "دین ",
  "3715": "شریف ",
  "3716": "گل ",
  "3717": "سونے کے ",
  "3718": "وٴں ",
  "3719": "وائ",
  "3720": "آگئ",
  "3721": "زریں ",
  "3722": "نہیں آ ",
  "3723": " کی طرح",
  "3724": "طالب علم ",
  "3725": "آزاد ",
  "3726": "جسم ",
  "3727": "اطمین",
  "3728": "یہ دیکھ کر ",
  "3729": " ابو",
  "3730": "سب سے زیادہ ",
  "3731": "چھوٹے چھوٹے ",
  "3732": "مبارک ",
  "3733": "گرفت",
  "3734": "ہوا،",
  "3735": " مس",
  "3736": "نہ آ",
  "3737": "میں اپنی ",
  "3738": "سی سے ",
  "3739": "تم مجھے ",
  "3740": "وہ بہت ",
  "3741": "جھنڈ",
  "3742": "میں اس ",
  "3743": "نوجوان",
  "3744": "دھری ",
  "3745": " امیر ",
  "3746": "نے لگا کہ ",
  "3747": "جگہ پر ",
  "3748": "تقسی",
  "3749": "ری کی ",
  "3750": "ریک",
  "3751": "جس کا ",
  "3752": "تمھارے ",
  "3753": "تفصی",
  "3754": "گرہ ",
  "3755": "خوراک",
  "3756": "دوسرے سے ",
  "3757": " کھیت",
  "3758": "مدد سے ",
  "3759": "آ گئے۔ ",
  "3760": "سکھ",
  "3761": "مف",
  "3762": "نی کے ",
  "3763": " کر دیا اور ",
  "3764": "بہت اچھا ",
  "3765": "چچا",
  "3766": "موقع ",
  "3767": " بلکہ ",
  "3768": "ہلکی ",
  "3769": "ملازم",
  "3770": "بادشاہ سلامت",
  "3771": " وہ دونوں ",
  "3772": "بیٹے کو ",
  "3773": "ور کی ",
  "3774": "انی",
  "3775": "نوٹ ",
  "3776": "جیب میں ",
  "3777": "ہوتا",
  "3778": "تھا جو ",
  "3779": "کا",
  "3780": "دال",
  "3781": "بغیر",
  "3782": "پلٹ",
  "3783": "جوی",
  "3784": "گار",
  "3785": " مرغ",
  "3786": "اس طرح ",
  "3787": "سیدھا ",
  "3788": "ر کا ",
  "3789": "میر ",
  "3790": "جاتی ہے۔ ",
  "3791": "مستق",
  "3792": "ری کا ",
  "3793": "برگ",
  "3794": "کام ",
  "3795": " کی،",
  "3796": "ہوئی تو ",
  "3797": "تاب ",
  "3798": " ”مجھے ",
  "3799": "پانی پی",
  "3800": "پانی کے ",
  "3801": "مجر",
  "3802": "ایک ک",
  "3803": "گھر پر ",
  "3804": "رہے تھے اور ",
  "3805": "ذر",
  "3806": "اور کہا ",
  "3807": "بات کو ",
  "3808": " ان سے ",
  "3809": " عمر ",
  "3810": "لیا",
  "3811": "اخبار ",
  "3812": "بڑا",
  "3813": "تڑ",
  "3814": "بولا”",
  "3815": "،میں ",
  "3816": "عزت ",
  "3817": "سکتا۔ ",
  "3818": "نے مجھے ",
  "3819": "فرق",
  "3820": "شہزادے ",
  "3821": "جارہا ",
  "3822": " استع",
  "3823": "مخلو",
  "3824": "دیا،",
  "3825": "جات ",
  "3826": "  میں نے ",
  "3827": "ہے“۔ ",
  "3828": "ہے“",
  "3829": "بانی ",
  "3830": "سنبھ",
  "3831": "ہاتھوں سے ",
  "3832": "چمک ",
  "3833": "ی تھی کہ ",
  "3834": "ہوا میں ",
  "3835": "طاقت",
  "3836": "جاتے ہیں۔ ",
  "3837": "مطمئ",
  "3838": "پڑھ ",
  "3839": "ظال",
  "3840": "میرے ک",
  "3841": "جتنا ",
  "3842": "دیکھو",
  "3843": "چکے تھے۔ ",
  "3844": "صحن میں ",
  "3845": "تی تھی ",
  "3846": " ابا ",
  "3847": "حاد",
  "3848": " کب ",
  "3849": "برس",
  "3850": "اسے ایک ",
  "3851": "دیدہ ",
  "3852": "باز ",
  "3853": "حسا",
  "3854": " اللہ تعال",
  "3855": "تنی ",
  "3856": " کی طرح ",
  "3857": "خوراک ",
  "3858": "لے کر",
  "3859": "تجر",
  "3860": "اشار",
  "3861": "یا تو ",
  "3862": "ئے اور ",
  "3863": "شروع کر",
  "3864": "ہے، ",
  "3865": "زور دار ",
  "3866": " تب ",
  "3867": "پوری",
  "3868": "مہنگ",
  "3869": "سایہ ",
  "3870": "بٹ",
  "3871": "ہ کسی ",
  "3872": "پکڑ ",
  "3873": "خطرہ ",
  "3874": "انپ",
  "3875": "مذاق اڑ",
  "3876": " کروا ",
  "3877": " کر کہا",
  "3878": "مجبور ",
  "3879": "باوجود",
  "3880": "دانت ",
  "3881": "بہن بھائی",
  "3882": "اسکول میں ",
  "3883": "رنگ ",
  "3884": "پیر",
  "3885": "گو ",
  "3886": "تجوی",
  "3887": "گرد",
  "3888": "میدان میں ",
  "3889": "اچھل",
  "3890": "زمیند",
  "3891": "مسلمان",
  "3892": "بولا- \"",
  "3893": "ذمے ",
  "3894": " کیوں نہیں ",
  "3895": "یاد رکھ",
  "3896": "وں میں",
  "3897": "جائیں گے۔ ",
  "3898": "باتوں میں ",
  "3899": "امتحان ",
  "3900": "حقیقت ",
  "3901": " بچ",
  "3902": "وار ",
  "3903": "شابا",
  "3904": "مسلسل ",
  "3905": "تھا:”",
  "3906": "بادشاہ کا ",
  "3907": "خان ",
  "3908": "بچھ",
  "3909": "درست ",
  "3910": "پھنس ",
  "3911": "روک ",
  "3912": "الجھ",
  "3913": "رہتا ",
  "3914": "ٹوکری ",
  "3915": " گاؤں ",
  "3916": " کھلو",
  "3917": "نے کی آواز ",
  "3918": "ہوتے ہیں ",
  "3919": "،وہ ",
  "3920": "گفت",
  "3921": "جس کی وجہ سے ",
  "3922": "ڈان",
  "3923": "نویں ",
  "3924": "00",
  "3925": "دیگر ",
  "3926": "عدی",
  "3927": "محمد ",
  "3928": "بیٹے کی ",
  "3929": "جواب دیا:”",
  "3930": "اس نے ک",
  "3931": "یں گے",
  "3932": "اپنے کمرے میں ",
  "3933": " کرتے ہیں۔ ",
  "3934": "توبہ",
  "3935": "  اس ",
  "3936": "ستھ",
  "3937": "ہوئے اور ",
  "3938": "سردی ",
  "3939": "فارغ ",
  "3940": "دعا",
  "3941": "آرام سے ",
  "3942": " آپ نے ",
  "3943": "پند",
  "3944": "دے دی",
  "3945": "جد ",
  "3946": "تجھے ",
  "3947": " کون",
  "3948": "ستا",
  "3949": "ی تھی،",
  "3950": "گھر میں داخل ",
  "3951": "کار ",
  "3952": " اکثر ",
  "3953": "صحیح ",
  "3954": "موٹر ",
  "3955": " لومڑی ",
  "3956": "مسکرا کر ",
  "3957": "بات سے ",
  "3958": "حا",
  "3959": "نگا",
  "3960": "ریت ",
  "3961": "ایک طرف ",
  "3962": "پوچھا کہ ",
  "3963": "یں گی۔ ",
  "3964": " ان میں ",
  "3965": "رکھا تھا۔ ",
  "3966": "ویسے بھی ",
  "3967": "ضائع",
  "3968": "ے کے لئے ",
  "3969": "بھی کوئی ",
  "3970": " بس",
  "3971": "صفائی ",
  "3972": "بنی ",
  "3973": "روح",
  "3974": "مغر",
  "3975": "مالی ",
  "3976": "کار",
  "3977": "اس کے ساتھ ",
  "3978": "قیا",
  "3979": "ہوا ہے۔ ",
  "3980": "چھٹی ",
  "3981": "دام",
  "3982": "افسر",
  "3983": "ارش",
  "3984": "لوگوں سے ",
  "3985": " کمپ",
  "3986": "گاہ ",
  "3987": " علی ",
  "3988": "گھونسلے میں ",
  "3989": "بستر پر ",
  "3990": "سالگرہ ",
  "3991": " چی",
  "3992": "عورت",
  "3993": "حضر",
  "3994": "احت",
  "3995": "پنکھ",
  "3996": "حارث",
  "3997": "ڈانٹ",
  "3998": "تاریخ",
  "3999": "ختم ہو",
  "4000": "ننھا ",
  "4001": "پھر سے ",
  "4002": "گاڑی میں ",
  "4003": "اور پھر ",
  "4004": "پر ایک ",
  "4005": "بے ہوش ",
  "4006": " کام میں ",
  "4007": " کے قریب ",
  "4008": "یہ نے ",
  "4009": "پاک ",
  "4010": "لہجے میں",
  "4011": "ثابت ",
  "4012": "ائی کا ",
  "4013": "نفر",
  "4014": "ب کا ",
  "4015": "آغ",
  "4016": "مسکراہٹ ",
  "4017": "موٹی ",
  "4018": "سبھی ",
  "4019": "گن ",
  "4020": "تبا",
  "4021": "بیر ",
  "4022": "مزے سے ",
  "4023": "حوی",
  "4024": "صندوق",
  "4025": "خوب صورت ",
  "4026": "س اور ",
  "4027": "وں کی",
  "4028": "پور ",
  "4029": "ٹ سے ",
  "4030": "سبق ",
  "4031": "مزید",
  "4032": "بھول",
  "4033": "جان بچ",
  "4034": "قہ ",
  "4035": "آتے ہی ",
  "4036": "مایوس ",
  "4037": "حوصلہ ",
  "4038": "آئیں۔ ",
  "4039": "دستک ",
  "4040": "ل اور ",
  "4041": "وش",
  "4042": " ”ہاں",
  "4043": "ماں نے ",
  "4044": " کوئی بھی ",
  "4045": "دکان",
  "4046": "سر ہلا",
  "4047": " تم نے ",
  "4048": "فیکٹ",
  "4049": "بہت سارے ",
  "4050": "لباس ",
  "4051": "بستی ",
  "4052": "و اور ",
  "4053": "گرمی ",
  "4054": "فیل ",
  "4055": "رنگ ب",
  "4056": " کس",
  "4057": "دشمن ",
  "4058": "نے کہ",
  "4059": "گھس ",
  "4060": "پکا ",
  "4061": "مجھ ",
  "4062": "نے لگا اور ",
  "4063": "گاہ",
  "4064": "وعدہ کر",
  "4065": "رہے تھے،",
  "4066": "پایا ",
  "4067": "سر جھک",
  "4068": "ش سے ",
  "4069": "بدلہ ",
  "4070": "تلو",
  "4071": " گیا اور ",
  "4072": "تنخواہ ",
  "4073": "والدہ",
  "4074": "می سے ",
  "4075": "فخر ",
  "4076": "اظہار",
  "4077": "نتیجہ ",
  "4078": "جاتا",
  "4079": " کتنے ",
  "4080": "نہ کر ",
  "4081": "نہ ہی ",
  "4082": "پیٹھ",
  "4083": "رہی ہو",
  "4084": "امیر ",
  "4085": "گھور",
  "4086": " کھا کر ",
  "4087": "جنبی ",
  "4088": "سکتا ",
  "4089": "گھاس ",
  "4090": "وہ اسے ",
  "4091": "سٹ ",
  "4092": "جاتا ہے ",
  "4093": "طرف ا",
  "4094": "بے میں ",
  "4095": "رہا ہوں۔ ",
  "4096": "پلی",
  "4097": "بیان",
  "4098": " کسی کی ",
  "4099": "خوشی کے ",
  "4100": " کہانیاں ",
  "4101": "جاتی۔ ",
  "4102": "لاکھ ",
  "4103": "نے کے بجائے ",
  "4104": "معمول ",
  "4105": "رضا ",
  "4106": " وہ ک",
  "4107": "مشی",
  "4108": "مسکراتے ہوئے ",
  "4109": "پتے ",
  "4110": "خلاف ",
  "4111": "بچپ",
  "4112": "قرآن ",
  "4113": "پاکستان ",
  "4114": "بنائے ",
  "4115": " کی بات سن کر ",
  "4116": "جڑ",
  "4117": "نے میں مصروف ",
  "4118": "بڑھیا ",
  "4119": "ریچھ ",
  "4120": "الی",
  "4121": "گیا ۔ ",
  "4122": " پھر وہ ",
  "4123": "مان کی ",
  "4124": "راضی ",
  "4125": "ظاہر",
  "4126": " کھانے پی",
  "4127": "روا",
  "4128": "انتہائی ",
  "4129": " اندھ",
  "4130": "الگ",
  "4131": "  ا",
  "4132": "نے اس ",
  "4133": "اڑ کر ",
  "4134": " جلد ",
  "4135": "بلایا ",
  "4136": "ساری بات ",
  "4137": "پولیس ",
  "4138": " کچھ نہیں ",
  "4139": "پندرہ ",
  "4140": "ہو چکا تھا۔ ",
  "4141": " کتا ",
  "4142": "چاہ ",
  "4143": "آباد",
  "4144": "حادث",
  "4145": "خوا",
  "4146": "نہیں کیا ",
  "4147": "پہنچ گیا۔ ",
  "4148": "جب یہ ",
  "4149": "جہاز",
  "4150": "ناکام ",
  "4151": "صورت میں ",
  "4152": "شاہ ",
  "4153": " کر دی ",
  "4154": "گاؤں وال",
  "4155": "لوگوں کا ",
  "4156": " انڈ",
  "4157": "شور",
  "4158": "راش",
  "4159": "دل سے ",
  "4160": "شکری",
  "4161": "ارے ک",
  "4162": "-\" ",
  "4163": " دوسرے دن ",
  "4164": "شرارتی ",
  "4165": "ری اور ",
  "4166": " اب میں ",
  "4167": "ائی کے ",
  "4168": "کان",
  "4169": "نمبر",
  "4170": "سلام ",
  "4171": "دودھ ",
  "4172": " میں ایک ",
  "4173": " جیسے ہی ",
  "4174": "ائیں گے۔ ",
  "4175": "ڈرا",
  "4176": "اس کے پیچھے ",
  "4177": "سن کر",
  "4178": "گار ",
  "4179": "عرصے ",
  "4180": "تھا مگر ",
  "4181": "ہے؟ ",
  "4182": "لائی ",
  "4183": "برے ",
  "4184": " تمام ",
  "4185": "صاحب کا ",
  "4186": "نے اس کی ",
  "4187": "دیتا ",
  "4188": "قرض",
  "4189": "قبول",
  "4190": "رخصت ",
  "4191": "طریقے سے ",
  "4192": " اع",
  "4193": "سورج ",
  "4194": "ہے جو",
  "4195": "ب اور ",
  "4196": "جاکر ",
  "4197": " ملا ",
  "4198": "وں کو بھی ",
  "4199": "خد",
  "4200": "ہوٹ",
  "4201": "چوری ",
  "4202": " کہاں سے ",
  "4203": "چارہ ",
  "4204": "ائی کی ",
  "4205": "دل ہی ",
  "4206": "جہ",
  "4207": "آرام ",
  "4208": "مبارک",
  "4209": "قابو ",
  "4210": "شان",
  "4211": "تنگ آ",
  "4212": "علاقے میں ",
  "4213": "پیسے ک",
  "4214": "ٹکڑا ",
  "4215": "صبح سویرے ",
  "4216": "دیکھی ",
  "4217": "دادی",
  "4218": "چلے گئے ",
  "4219": " (",
  "4220": " اشر",
  "4221": "چوٹ",
  "4222": "دعوت ",
  "4223": " شہ",
  "4224": "برک",
  "4225": "بیٹا",
  "4226": "گائ",
  "4227": "برف ",
  "4228": "ہرا ",
  "4229": "طار",
  "4230": "آلہ ",
  "4231": "رسو",
  "4232": "سیٹھ ",
  "4233": "جادوگر ",
  "4234": " \" ",
  "4235": "ظاہر ",
  "4236": " ”تم ",
  "4237": "آیا",
  "4238": "نظر آ ",
  "4239": "نہیں دے ",
  "4240": "پانی سے ",
  "4241": "بدل",
  "4242": "نظر آیا۔ ",
  "4243": "چپ ",
  "4244": "یہ کہتے ہوئے ",
  "4245": " کروں ",
  "4246": "دیکھ بھال",
  "4247": " جس",
  "4248": "شاہ",
  "4249": "گود میں ",
  "4250": "شاد",
  "4251": " بلی ",
  "4252": "یونی",
  "4253": "ذہین ",
  "4254": "تالاب",
  "4255": "شاء اللہ ",
  "4256": " دار ",
  "4257": "پچ",
  "4258": "حالات",
  "4259": "تیرے ",
  "4260": "تو اس کا ",
  "4261": "از ",
  "4262": "مون ",
  "4263": "مقام ",
  "4264": "اشرفیاں ",
  "4265": "لاق",
  "4266": "فاختہ ",
  "4267": " بی",
  "4268": "چاہے ",
  "4269": "چاروں طرف ",
  "4270": "تو میری ",
  "4271": "لوی ",
  "4272": "گول",
  "4273": "رضی ",
  "4274": "منز",
  "4275": "ی، ",
  "4276": "معصوم ",
  "4277": " کسی بھی ",
  "4278": "فیق",
  "4279": "نسل",
  "4280": "تو اپنے ",
  "4281": "تھیں،",
  "4282": "تار",
  "4283": "اری کا ",
  "4284": "میں کیا ",
  "4285": "جا رہا تھا۔ ",
  "4286": "رہ گیا۔ ",
  "4287": "تو میں نے ",
  "4288": "بچی ",
  "4289": " کام سے ",
  "4290": "پنک",
  "4291": " کہتی ",
  "4292": " کپڑے ",
  "4293": "ہمدر",
  "4294": "مانہ ",
  "4295": "جائے گی۔ ",
  "4296": "بعد وہ ",
  "4297": "راد ",
  "4298": "شیر کے ",
  "4299": "تھام",
  "4300": "نہیں لگ",
  "4301": " اس کے پاس ",
  "4302": "دئی",
  "4303": "رسی",
  "4304": "لڑائی ",
  "4305": "مبت",
  "4306": "افظ",
  "4307": "فٹ",
  "4308": "ے ۔ ",
  "4309": "نہیں تھی۔ ",
  "4310": "اور کبھی ",
  "4311": "ایک ایک ",
  "4312": "ہی سے ",
  "4313": "لکڑہ",
  "4314": "منڈ",
  "4315": "دیکھنا ",
  "4316": "اپنے ساتھ ",
  "4317": "ہم سے ",
  "4318": "ب میں ",
  "4319": "بے چ",
  "4320": " کر کہا۔ ",
  "4321": "مقر",
  "4322": "گھنٹے ",
  "4323": "گز ",
  "4324": "جب بھی ",
  "4325": "خود بھی ",
  "4326": " اسی طرح",
  "4327": "پہاڑی ",
  "4328": "انکل ",
  "4329": "نف",
  "4330": "تکلیف",
  "4331": "ماموں ",
  "4332": "محبت",
  "4333": "نما ",
  "4334": "قسم کے ",
  "4335": "سلامت ",
  "4336": " از",
  "4337": "فا ",
  "4338": "اداس ",
  "4339": "جام",
  "4340": "گھو",
  "4341": "چھت پر ",
  "4342": "نشان ",
  "4343": "گئی،",
  "4344": "شوہر",
  "4345": "اکبر ",
  "4346": "رضی اللہ ",
  "4347": "تے تھے ۔ ",
  "4348": "نے کہا- \"",
  "4349": "لیا تھا۔ ",
  "4350": "جال ",
  "4351": "تیں",
  "4352": "دوڑ ",
  "4353": "ہوم ",
  "4354": "سے کہہ ",
  "4355": "بغ",
  "4356": " وہ بھی ",
  "4357": " کے مارے ",
  "4358": "بچوں کا ",
  "4359": "جاؤں گا۔ ",
  "4360": "جوان ",
  "4361": " اس نے ک",
  "4362": "میں تو ",
  "4363": " پھر اس نے ",
  "4364": "نے کی کوشش کی ",
  "4365": "مکمل",
  "4366": "شیر کو ",
  "4367": "سڑک پر ",
  "4368": "بکھ",
  "4369": " ز",
  "4370": "مسکر",
  "4371": " “اس نے ",
  "4372": "فیس ",
  "4373": "شرط",
  "4374": "جد",
  "4375": "ہری",
  "4376": "عہ",
  "4377": "ہاش",
  "4378": " کیوں کہ ",
  "4379": "نے لگے ۔ ",
  "4380": "روم ",
  "4381": "دوا ",
  "4382": "ضد ",
  "4383": "ل پر ",
  "4384": " احمد نے ",
  "4385": "اللہ کی ",
  "4386": "یوں کا ",
  "4387": "سرا",
  "4388": "  تم ",
  "4389": "بلند",
  "4390": "تھوڑا سا ",
  "4391": "فرق ",
  "4392": "غلام",
  "4393": " اس نے اپنی ",
  "4394": "ے کہ وہ ",
  "4395": "بے وقوف ",
  "4396": "ہمیں",
  "4397": "گلی",
  "4398": "امی کو ",
  "4399": "ٹکڑے ",
  "4400": "لپک",
  "4401": "لی میں ",
  "4402": "گھڑ",
  "4403": " یہ دیکھ کر ",
  "4404": "دونوں کے ",
  "4405": "یات ",
  "4406": "اور اس کی ",
  "4407": "احسان ",
  "4408": "خزا",
  "4409": "شیخ",
  "4410": "ناراض ",
  "4411": "،لیکن",
  "4412": "اور کچھ ",
  "4413": "ہو گا",
  "4414": " ایک روز ",
  "4415": "طاقت ",
  "4416": "بکری",
  "4417": " افسوس ",
  "4418": "جانوروں کو ",
  "4419": "نیا",
  "4420": "اتفاق",
  "4421": "ڈری",
  "4422": "اور کہا کہ ",
  "4423": " اخت",
  "4424": "بادشاہ سلامت ",
  "4425": "اقبال",
  "4426": "خلی",
  "4427": " کرنی ",
  "4428": "رہی تھی اور ",
  "4429": "سرخ",
  "4430": "سیب ",
  "4431": "ٹیک",
  "4432": "پڑھا ",
  "4433": "گئے،",
  "4434": " سر ",
  "4435": "  اور ",
  "4436": "اونچی ",
  "4437": "تنگ ",
  "4438": "رحم",
  "4439": "پیچھے سے ",
  "4440": "پھن",
  "4441": " دادی ",
  "4442": "ہوں گے۔ ",
  "4443": "میں کامیاب ",
  "4444": " اٹھا کر ",
  "4445": "درخت کے نیچے ",
  "4446": "نے لگا:”",
  "4447": "دروازے ",
  "4448": "پیر ",
  "4449": "گھر لے ",
  "4450": "سیاہ ",
  "4451": "مطال",
  "4452": "انگری",
  "4453": "خواہش",
  "4454": "بات ہے۔ ",
  "4455": "مٹی ",
  "4456": "تالاب ",
  "4457": "رس",
  "4458": "قصہ ",
  "4459": "چاد",
  "4460": "گزرے ",
  "4461": " یہی ",
  "4462": "ان کی طرف ",
  "4463": "چند",
  "4464": "آمد ",
  "4465": "چہ",
  "4466": "گلا",
  "4467": "فل",
  "4468": "سے کیا ",
  "4469": " اتفاق",
  "4470": "ہوا تھا ",
  "4471": " کسان",
  "4472": "انجام ",
  "4473": "آگئے ",
  "4474": "ی تھی ۔ ",
  "4475": "جارہے ",
  "4476": "سمجھ کر ",
  "4477": "آ گئی۔ ",
  "4478": " سب",
  "4479": "رہتا۔ ",
  "4480": "جگہ سے ",
  "4481": "چھٹیاں ",
  "4482": "آزادی ",
  "4483": "اختیار ",
  "4484": "لے کا ",
  "4485": "رکھ ل",
  "4486": "خبر",
  "4487": "بھوکا ",
  "4488": "جائیں ",
  "4489": "احتیاط",
  "4490": "نہ کوئی ",
  "4491": "لح",
  "4492": "نہیں چاہ",
  "4493": "سی کا ",
  "4494": "معلوما",
  "4495": "ہڑ",
  "4496": "جل ",
  "4497": "تیم",
  "4498": " وقت ",
  "4499": "سانپ ",
  "4500": "پیاس ",
  "4501": "تے ہوئے کہا ",
  "4502": "پکڑے ",
  "4503": "فرض ",
  "4504": "پھوٹ",
  "4505": "ہونے کا ",
  "4506": "ماں کے ",
  "4507": "لی سے ",
  "4508": "مہینہ ",
  "4509": "لکڑیاں ",
  "4510": "طرح سے ",
  "4511": "نہیں ہے ",
  "4512": "ارد",
  "4513": "زمیندار ",
  "4514": " انعام ",
  "4515": " ہاں ",
  "4516": "میک",
  "4517": "آگئے۔ ",
  "4518": "ہے\"- ",
  "4519": " نو",
  "4520": "مان نے ",
  "4521": "رشتے ",
  "4522": " اط",
  "4523": " چنانچہ ",
  "4524": "ب! ",
  "4525": "چوز",
  "4526": "ایک کو",
  "4527": "چھو",
  "4528": " اب تو ",
  "4529": "گھما",
  "4530": "مار کر ",
  "4531": "مطمئن ",
  "4532": "جب تک ",
  "4533": "وں کے پاس ",
  "4534": "زندگی گزار",
  "4535": "آزادی",
  "4536": "بتایا:”",
  "4537": "ٹی وی ",
  "4538": " کی ضرورت ",
  "4539": "بکرا ",
  "4540": "جھانک",
  "4541": "آگے بڑھ کر ",
  "4542": " کی جانب ",
  "4543": "سرخ ",
  "4544": "انتقال ",
  "4545": "ناں",
  "4546": "بڑا سا ",
  "4547": "ے کے ساتھ ",
  "4548": "وں کی طرف ",
  "4549": "ہر طرف ",
  "4550": " کرنے سے ",
  "4551": "جیب سے ",
  "4552": "ٹھی",
  "4553": "بکری ",
  "4554": "ہزاروں ",
  "4555": "بھوکے ",
  "4556": " گئی اور ",
  "4557": "سودا",
  "4558": "ے....",
  "4559": "ایک دن",
  "4560": "ہوتی ہے ",
  "4561": "گناہ ",
  "4562": "بسر",
  "4563": "آگئی۔ ",
  "4564": "ے”",
  "4565": "ٹیں ",
  "4566": "یں، ",
  "4567": "تے تو ",
  "4568": "پا کر ",
  "4569": "بالکل",
  "4570": "دیکھ رہا تھا۔ ",
  "4571": " لکڑ",
  "4572": "ے کھڑے ",
  "4573": "دیکھے ",
  "4574": " کوشش ",
  "4575": "استاد",
  "4576": "مصیب",
  "4577": "  ”",
  "4578": "رکھ دیا۔ ",
  "4579": "عم",
  "4580": "ہو چک",
  "4581": "ہزار روپے ",
  "4582": "ہونے کی وجہ سے ",
  "4583": "دھیان ",
  "4584": "اللہ کے ",
  "4585": "ت نہیں ",
  "4586": "حکی",
  "4587": "حضور",
  "4588": "اندر",
  "4589": "چائ",
  "4590": "بھی ایک ",
  "4591": "ے؟“",
  "4592": "تت",
  "4593": " چچا ",
  "4594": "یوس",
  "4595": "گید",
  "4596": "شمائ",
  "4597": "پھر اس نے ",
  "4598": "گرام ",
  "4599": "مچھلیاں ",
  "4600": "ایمان",
  "4601": "تنے ",
  "4602": "صاف ستھ",
  "4603": "طاقتور ",
  "4604": "تیسرے ",
  "4605": "تیر ",
  "4606": "چے ",
  "4607": "استاد ",
  "4608": " کلاس ",
  "4609": "دراصل ",
  "4610": "پر پڑی ",
  "4611": "جھٹ",
  "4612": "بہت بڑی ",
  "4613": "قریب",
  "4614": "تو ان",
  "4615": "بتائی ",
  "4616": "چپکے سے ",
  "4617": "تے کہ ",
  "4618": "پون",
  "4619": "واقف ",
  "4620": "جھوٹ بول",
  "4621": " “یہ کہہ کر ",
  "4622": "میں ہی ",
  "4623": "ہ،",
  "4624": "ہو گیا کہ ",
  "4625": "تک کہ ",
  "4626": " ! ",
  "4627": " کیسی ",
  "4628": "فرش",
  "4629": " مز",
  "4630": "سارا دن ",
  "4631": " اکی",
  "4632": "دانت",
  "4633": "زبان",
  "4634": "رویش ",
  "4635": " کی کھ",
  "4636": "رہی تھی ۔ ",
  "4637": "تے تھے اور ",
  "4638": "سلوک",
  "4639": "ہو گئے اور ",
  "4640": "آئیں ",
  "4641": "ہسپتال",
  "4642": "دیر",
  "4643": "بہت پسند ",
  "4644": "پر کوئی ",
  "4645": "تو کچھ ",
  "4646": "گھبرا ",
  "4647": "لگایا ",
  "4648": "دکھ ",
  "4649": " مل ",
  "4650": "ہو رہا تھا۔ ",
  "4651": "پیغ",
  "4652": "آج سے ",
  "4653": "حما",
  "4654": "مقابلہ ",
  "4655": "تھوڑی ہی ",
  "4656": " کے وقت ",
  "4657": " سو ",
  "4658": " کیا تو ",
  "4659": " کہا اور ",
  "4660": "پڑوسی ",
  "4661": "جو کچھ ",
  "4662": "ٹا",
  "4663": "نہ کسی ",
  "4664": "ہے کہ میں ",
  "4665": "دیتے ہیں۔ ",
  "4666": "بھیجا ",
  "4667": " چکا ",
  "4668": "ہو جائے گا۔ ",
  "4669": "سکو",
  "4670": "عہد",
  "4671": "طلب",
  "4672": "جوش ",
  "4673": "جادوئی ",
  "4674": "جاتا تھا۔ ",
  "4675": "سردی",
  "4676": "گائے ",
  "4677": "عزیز ",
  "4678": "اسی وقت ",
  "4679": "برس ",
  "4680": "افسوس ",
  "4681": " رمض",
  "4682": "مقصد ",
  "4683": "علامہ ",
  "4684": "جہاز ",
  "4685": "عاص",
  "4686": "گا ۔ ",
  "4687": "گڑھ",
  "4688": "لگائے ",
  "4689": "جانے کے بعد ",
  "4690": "داخلہ ",
  "4691": "وض",
  "4692": "  کیا ",
  "4693": "آواز میں",
  "4694": " کرو ",
  "4695": "اللہ نے ",
  "4696": "وں کی طرح ",
  "4697": " لکھ",
  "4698": "ملک کے ",
  "4699": " اسی وقت ",
  "4700": "  ایک ",
  "4701": "رابط",
  "4702": "ماجرا ",
  "4703": "مرض",
  "4704": "جمل",
  "4705": "جنگل سے ",
  "4706": " ہم نے ",
  "4707": "گردن",
  "4708": " گیا کہ ",
  "4709": "ہو گئی تھی۔ ",
  "4710": "مظ",
  "4711": "حملہ کر",
  "4712": "سے کو",
  "4713": "ری سے ",
  "4714": "نے کہا ”",
  "4715": "آنکھیں بند",
  "4716": "سوال کیا۔ ",
  "4717": "غور",
  "4718": "ہو گی ",
  "4719": "نہیں ہو سک",
  "4720": "سمیت ",
  "4721": "سرکاری ",
  "4722": "نا چاہیے۔ ",
  "4723": "یہی",
  "4724": " کپڑ",
  "4725": "تو انہوں نے ",
  "4726": "شہزادے نے ",
  "4727": "اث",
  "4728": "گھونسل",
  "4729": "لی کی ",
  "4730": "اپنے ساتھ",
  "4731": "ایک بار ",
  "4732": "،یہ ",
  "4733": "زیور",
  "4734": "جو کہ ",
  "4735": "آج بھی ",
  "4736": "چاک",
  "4737": "اقبال ",
  "4738": "دائ",
  "4739": "نے کہا:",
  "4740": "سعید",
  "4741": "- میں ",
  "4742": "بھی۔ ",
  "4743": "پہنچ گئے۔ ",
  "4744": " کی ایک ",
  "4745": "ب کو ",
  "4746": "دیا ہے۔ ",
  "4747": "سنتے ہی ",
  "4748": "سر! ",
  "4749": "ؤں۔ ",
  "4750": "شت ",
  "4751": "میدان ",
  "4752": "پیٹ میں ",
  "4753": "ہیں، ",
  "4754": "حسب ",
  "4755": "ہر وقت",
  "4756": "ئے،",
  "4757": "عید ",
  "4758": "سالہ ",
  "4759": "ٹھا ",
  "4760": " وہ بہت ",
  "4761": "ہو گئیں۔ ",
  "4762": "تو انھوں نے ",
  "4763": "سونے کا ",
  "4764": "گوار ",
  "4765": "فکر",
  "4766": "ڈالا ",
  "4767": "سی کے ",
  "4768": "استعمال ",
  "4769": " کے سامنے ",
  "4770": "سے گزر",
  "4771": "دادا",
  "4772": "متاثر ",
  "4773": "لطف",
  "4774": "جوا",
  "4775": "کان ",
  "4776": "گویا ",
  "4777": "سیر",
  "4778": "ڈائ",
  "4779": "تے نے ",
  "4780": "دیکھا تو وہ ",
  "4781": "رانی ",
  "4782": " کیسا ",
  "4783": "ندی ",
  "4784": "لوگوں کو",
  "4785": "گھر پہنچ",
  "4786": "آؤ۔ ",
  "4787": "معاذ",
  "4788": "تے رہے ",
  "4789": "ہوگیا۔ ",
  "4790": "بن مان",
  "4791": "بلال",
  "4792": "تھا- وہ ",
  "4793": "لی تھی۔ ",
  "4794": "ترین ",
  "4795": "تھی کہ وہ ",
  "4796": "بے کے ",
  "4797": " وہ اپنی ",
  "4798": "تے تھے کہ ",
  "4799": "سے کچھ",
  "4800": "لے آ",
  "4801": "میٹ",
  "4802": "بوتر",
  "4803": "ہے مگر ",
  "4804": "بری طرح ",
  "4805": "وقت پر ",
  "4806": "و کی ",
  "4807": "ؤ ",
  "4808": "نہیں جان",
  "4809": "ہو گیا ہے۔ ",
  "4810": "سکون",
  "4811": "جائی",
  "4812": "ی:”",
  "4813": "معلوم ہوا کہ ",
  "4814": "روپے کا ",
  "4815": "لوم ",
  "4816": "بھائی کی ",
  "4817": "جو بھی ",
  "4818": "بھائی نے ",
  "4819": "تا تھا اور ",
  "4820": "درختوں کے ",
  "4821": "ہ۔ ",
  "4822": " مل کر ",
  "4823": "ہی نہ ",
  "4824": "بچوں ",
  "4825": "خشک ",
  "4826": "روم میں ",
  "4827": "بھر میں ",
  "4828": "آرام کر",
  "4829": "ت بھی ",
  "4830": "منظ",
  "4831": "نامی ",
  "4832": "دیکھیں ",
  "4833": "اس کے لئے ",
  "4834": " بہ",
  "4835": " کاٹ ",
  "4836": "ہاتھوں میں ",
  "4837": "میرے ساتھ",
  "4838": " کی تلاش میں ",
  "4839": "فوج",
  "4840": "طرف اشار",
  "4841": "پاپا",
  "4842": "گلہ",
  "4843": "ناشتہ ",
  "4844": "اسی طرح ",
  "4845": "تھے ،",
  "4846": "تے ۔ ",
  "4847": "بہت کم ",
  "4848": "ہو گئی اور ",
  "4849": "زندگی کا ",
  "4850": " کا دل ",
  "4851": "بہاد",
  "4852": "پہنے ",
  "4853": "تی کے ",
  "4854": "موٹے ",
  "4855": "شیش",
  "4856": "یل",
  "4857": "زیادہ تر ",
  "4858": "سب کچھ",
  "4859": "اس نے اپنی ",
  "4860": "بلی کے ",
  "4861": "رکھا۔ ",
  "4862": "بھرو",
  "4863": "تال ",
  "4864": "ان کے ساتھ",
  "4865": "حسین ",
  "4866": "طریقہ ",
  "4867": "خطرناک ",
  "4868": "گھٹ",
  "4869": "پکار",
  "4870": "آ گئی ",
  "4871": "وں کے سامنے ",
  "4872": "بھی ک",
  "4873": "پیارا ",
  "4874": "امی سے ",
  "4875": "آ گیا ",
  "4876": "عالم ",
  "4877": "لاڈ",
  "4878": "بعض",
  "4879": "صبر",
  "4880": " لہذا ",
  "4881": "سہارا ",
  "4882": "مقابلہ",
  "4883": "رہ کر ",
  "4884": "بڑھا",
  "4885": "لیے۔ ",
  "4886": " استعمال",
  "4887": " کی کہانی ",
  "4888": "ئے کہ ",
  "4889": "بھی کچھ ",
  "4890": " کریں۔ ",
  "4891": "تک نہیں ",
  "4892": "سوکھ",
  "4893": " مام",
  "4894": "روٹی",
  "4895": "عالم میں ",
  "4896": "انتظام",
  "4897": "تجویز ",
  "4898": "جب اس نے ",
  "4899": " اسکول",
  "4900": "دن سے ",
  "4901": "مہینے ",
  "4902": "جوڑ",
  "4903": " بنا",
  "4904": "وزن ",
  "4905": "سلسلہ ",
  "4906": "اکیلا ",
  "4907": "دور سے ",
  "4908": "فاصلے پر ",
  "4909": "ڈرتے ",
  "4910": "بستہ ",
  "4911": "زئی",
  "4912": "اسکی ",
  "4913": " ماسٹر ",
  "4914": "رہتی تھی۔ ",
  "4915": "تو اس",
  "4916": "بچوں سے ",
  "4917": "تو ان کی ",
  "4918": "لیتی ",
  "4919": "وح",
  "4920": "بولیں:”",
  "4921": " اوپر ",
  "4922": "تے ہو ",
  "4923": "جان سے ",
  "4924": "ہوتے ہی ",
  "4925": "قید ",
  "4926": "رحمت ",
  "4927": "گھر والے ",
  "4928": "ٹیو",
  "4929": "پکڑا ",
  "4930": "اندر داخل ",
  "4931": "برا حال ",
  "4932": "اس نے ایک ",
  "4933": "جاتا اور ",
  "4934": "پائے ",
  "4935": "سہ ",
  "4936": "چابی ",
  "4937": "آباد ",
  "4938": "صاحبہ",
  "4939": "ماہر ",
  "4940": " بزرگ",
  "4941": "قائم ",
  "4942": " کرنے کے لئے ",
  "4943": "محنت سے ",
  "4944": " کاروبار ",
  "4945": "سال کا ",
  "4946": "گول ",
  "4947": "بابا! ",
  "4948": "تما",
  "4949": "تھوڑے ",
  "4950": "لگی ہوئی ",
  "4951": "گھنے ",
  "4952": "دھوپ",
  "4953": "خط ",
  "4954": "و گے۔ ",
  "4955": "مینڈک ",
  "4956": " بن",
  "4957": "میں بہت ",
  "4958": "مبتلا ",
  "4959": "مین ",
  "4960": "سردار ",
  "4961": "صاحب سے ",
  "4962": "پوزی",
  "4963": "صحیح",
  "4964": "آنے ",
  "4965": "بیٹھ گئے۔ ",
  "4966": "آنکھیں",
  "4967": " رات ",
  "4968": " کامیاب ",
  "4969": "توں سے ",
  "4970": " جگ",
  "4971": "مشغ",
  "4972": "وس ",
  "4973": "بڑی مشکل سے ",
  "4974": "قت",
  "4975": "اری سے ",
  "4976": "پھڑ",
  "4977": "غیرہ",
  "4978": "پرست",
  "4979": "ہے کہ وہ ",
  "4980": "لڑکے نے ",
  "4981": "صدی",
  "4982": "گئیں ",
  "4983": " کھان",
  "4984": "ی کی وجہ سے ",
  "4985": "بیگم",
  "4986": "روٹی ",
  "4987": "جاتے۔ ",
  "4988": "کری",
  "4989": "چن",
  "4990": "ساتھ ساتھ",
  "4991": "حکم دیا کہ ",
  "4992": "ش کی ",
  "4993": "بچے کو",
  "4994": "تا ہوں،",
  "4995": "بے ک",
  "4996": "ڈانٹ ",
  "4997": "مما ",
  "4998": "زن",
  "4999": "تم کو "
}