{
  "0": "<EOT>",
  "1": " ",
  "2": "ر",
  "3": "ح",
  "4": "م",
  "5": "ا",
  "6": "ن",
  "7": "ک",
  "8": "ے",
  "9": "ب",
  "10": "و",
  "11": "س",
  "12": "پ",
  "13": "ی",
  "14": "خ",
  "15": "د",
  "16": "گ",
  "17": "ھ",
  "18": "چ",
  "19": "ڑ",
  "20": "آ",
  "21": "ئ",
  "22": "۔",
  "23": "<EOS>",
  "24": "ج",
  "25": "ت",
  "26": "ف",
  "27": "ل",
  "28": "ں",
  "29": "ٹ",
  "30": "ع",
  "31": "ہ",
  "32": "ڈ",
  "33": "غ",
  "34": "ص",
  "35": "ش",
  "36": "ذ",
  "37": "ز",
  "38": "ؤ",
  "39": "<EOP>",
  "40": "،",
  "41": "ظ",
  "42": "ض",
  "43": "ط",
  "44": "ق",
  "45": "“",
  "46": ":",
  "47": "”",
  "48": "؟",
  "49": "!",
  "50": "‘",
  "51": "ث",
  "52": ".",
  "53": "(",
  "54": ")",
  "55": "1",
  "56": "4",
  "57": "ء",
  "58": "ژ",
  "59": "’",
  "60": "5",
  "61": "A",
  "62": "+",
  "63": "0",
  "64": "ٴ",
  "65": "2",
  "66": "3",
  "67": "6",
  "68": "9",
  "69": "أ",
  "70": "7",
  "71": "G",
  "72": "r",
  "73": "a",
  "74": "s",
  "75": "R",
  "76": "o",
  "77": "t",
  "78": "L",
  "79": "e",
  "80": "d",
  "81": "l",
  "82": "b",
  "83": "F",
  "84": "y",
  "85": "c",
  "86": "i",
  "87": "p",
  "88": "E",
  "89": "n",
  "90": "z",
  "91": "m",
  "92": "B",
  "93": "W",
  "94": "v",
  "95": "N",
  "96": "w",
  "97": "T",
  "98": "S",
  "99": "h",
  "100": "P",
  "101": "H",
  "102": "D",
  "103": "M",
  "104": "u",
  "105": "g",
  "106": "I",
  "107": "x",
  "108": ",",
  "109": "O",
  "110": "8",
  "111": "C",
  "112": "V",
  "113": "k",
  "114": "f",
  "115": "ے ",
  "116": " ک",
  "117": "ی ",
  "118": "ر ",
  "119": "ا ",
  "120": "۔ ",
  "121": "ں ",
  "122": "ہ ",
  "123": "نے ",
  "124": "و ",
  "125": "یں ",
  "126": "ان",
  "127": "اس",
  "128": "تھ",
  "129": "سے ",
  "130": " م",
  "131": "ا۔ ",
  "132": " کے ",
  "133": "ور ",
  "134": "یک",
  "135": " ا",
  "136": "  ",
  "137": " ب",
  "138": "ہو",
  "139": " کی ",
  "140": "ے۔ ",
  "141": "ال",
  "142": "ار",
  "143": "اور ",
  "144": " کر ",
  "145": "ت ",
  "146": "یں",
  "147": "میں ",
  "148": "بھ",
  "149": "ئے ",
  "150": "م ",
  "151": "چھ",
  "152": "یا ",
  "153": " کو ",
  "154": "وں ",
  "155": "ب ",
  "156": "اس ",
  "157": "وہ ",
  "158": " کر",
  "159": "رہ",
  "160": "تے ",
  "161": "یا",
  "162": " میں ",
  "163": "تو ",
  "164": " د",
  "165": "ہا",
  "166": "ی۔ ",
  "167": "ے ک",
  "168": " پ",
  "169": " کا ",
  "170": "ائ",
  "171": "نے ک",
  "172": "اپ",
  "173": "نہ",
  "174": "تا ",
  "175": "ام",
  "176": "ور",
  "177": "وں",
  "178": " “",
  "179": " ہ",
  "180": " ج",
  "181": "با",
  "182": " گ",
  "183": "یر",
  "184": "یا۔ ",
  "185": "ایک",
  "186": "یہ ",
  "187": "ول",
  "188": "تھا۔ ",
  "189": "بھی ",
  "190": " س",
  "191": "ین",
  "192": " کہ ",
  "193": "ون",
  "194": "کھ",
  "195": "رو",
  "196": "جھ",
  "197": " ”",
  "198": "اد",
  "199": " ل",
  "200": "ٹھ",
  "201": "یں۔ ",
  "202": "ئی ",
  "203": "ھر ",
  "204": "پر ",
  "205": "ند",
  "206": "نہیں ",
  "207": " “ ",
  "208": "ہے۔ ",
  "209": " کھ",
  "210": "لگ",
  "211": "یکھ",
  "212": " اس",
  "213": "را",
  "214": "تی ",
  "215": " سے ",
  "216": "خو",
  "217": " آ",
  "218": "بی",
  "219": "! ",
  "220": "ہو ",
  "221": "ری",
  "222": "ے،",
  "223": "تم",
  "224": "وس",
  "225": "نا ",
  "226": "نی ",
  "227": "جا",
  "228": "لا",
  "229": "ہی ",
  "230": "لے ",
  "231": "ار ",
  "232": "بہ",
  "233": ":”",
  "234": "ی ک",
  "235": " وہ ",
  "236": "دیکھ",
  "237": " بھ",
  "238": "..",
  "239": "لئے ",
  "240": "طر",
  "241": "ا،",
  "242": " اس ",
  "243": "دی",
  "244": " چ",
  "245": "سا",
  "246": "وال",
  "247": "نہ ",
  "248": " ان",
  "249": "ہ ک",
  "250": "لو",
  "251": "تھے۔ ",
  "252": "مجھ",
  "253": "جان",
  "254": " نے ",
  "255": "اہ",
  "256": "اپنے ",
  "257": "اب",
  "258": "لی",
  "259": "ڑھ",
  "260": "نے لگ",
  "261": "گر ",
  "262": "اح",
  "263": "رہا ",
  "264": "ارے ",
  "265": "تھی۔ ",
  "266": "از",
  "267": "بچ",
  "268": " ایک",
  "269": " کو",
  "270": "ہوئے ",
  "271": "پی",
  "272": "نگ",
  "273": "لی ",
  "274": "اسے ",
  "275": "نا",
  "276": "ہاں ",
  "277": "سی ",
  "278": "ل ",
  "279": "ہے ",
  "280": " اور ",
  "281": "پہ",
  "282": "ات",
  "283": "وٹ",
  "284": "ہیں ",
  "285": "ڑی ",
  "286": "سک",
  "287": "وق",
  "288": "ہو گ",
  "289": "آپ",
  "290": "عد",
  "291": "اری ",
  "292": "گھ",
  "293": "ا کہ ",
  "294": "می",
  "295": " ت",
  "296": "بہت ",
  "297": "ساتھ",
  "298": "ہیں۔ ",
  "299": "میر",
  "300": "جو",
  "301": "رکھ",
  "302": "ا اور ",
  "303": " ہو",
  "304": "ی سے ",
  "305": " ش",
  "306": "ہر ",
  "307": "ی،",
  "308": "ما",
  "309": "دھ",
  "310": " پر ",
  "311": "یکن",
  "312": "مل",
  "313": "نک",
  "314": "ری ",
  "315": "ائی ",
  "316": "گھر ",
  "317": "رے ",
  "318": "اک",
  "319": "اپنی ",
  "320": "سو",
  "321": "اس کے ",
  "322": "دوس",
  "323": "رہے ",
  "324": "تے ہوئے ",
  "325": "بول",
  "326": " ہو ",
  "327": "نے کے ",
  "328": " بھی ",
  "329": "وں کے ",
  "330": "مع",
  "331": "خوش",
  "332": "مد",
  "333": " کی",
  "334": " کیا ",
  "335": "وں کو ",
  "336": "سن",
  "337": " کچھ",
  "338": "ئے۔ ",
  "339": "یر ",
  "340": "اؤ",
  "341": "انی ",
  "342": " کہ",
  "343": "دن",
  "344": "ید",
  "345": "وں نے ",
  "346": "؟“",
  "347": "ہم",
  "348": "شک",
  "349": "اف",
  "350": "ہوں",
  "351": "تم ",
  "352": "یں،",
  "353": "ئی۔ ",
  "354": "یل",
  "355": "پھ",
  "356": "طرف",
  "357": "وڑ",
  "358": "وں کی ",
  "359": "یاں ",
  "360": "در",
  "361": "ام ",
  "362": " ن",
  "363": "ی کے ",
  "364": "صاح",
  "365": "ہے،",
  "366": "اس کی ",
  "367": "بعد",
  "368": "ا تو ",
  "369": "جو ",
  "370": "اب ",
  "371": "ست",
  "372": "پر",
  "373": " ع",
  "374": "وں سے ",
  "375": " یہ ",
  "376": "یا اور ",
  "377": "ہا:”",
  "378": "کہ ",
  "379": "رہی ",
  "380": " اس نے ",
  "381": "گر",
  "382": "یس",
  "383": "لہ ",
  "384": " اپ",
  "385": "می ",
  "386": " کر د",
  "387": "ی کی ",
  "388": "پو",
  "389": "نچ",
  "390": "ڑے ",
  "391": "ہاتھ",
  "392": "یز",
  "393": "سان",
  "394": "وں میں ",
  "395": "یاد",
  "396": "اس نے ",
  "397": "سب",
  "398": " تھ",
  "399": "تک",
  "400": "گا۔ ",
  "401": "مح",
  "402": "مان",
  "403": "طرح",
  "404": "چاہ",
  "405": "لا ",
  "406": "ڑا ",
  "407": "ے کہ ",
  "408": "بر",
  "409": "سے ک",
  "410": "تمہ",
  "411": "خت",
  "412": "شا",
  "413": "بت",
  "414": "وش",
  "415": "نظ",
  "416": "بات ",
  "417": "بے ",
  "418": " دن",
  "419": "مجھے ",
  "420": "بیٹ",
  "421": "بیٹھ",
  "422": "یسے ",
  "423": "تھا،",
  "424": "پھر ",
  "425": "ہوا ",
  "426": " و",
  "427": " ف",
  "428": "اق",
  "429": "اور",
  "430": " میر",
  "431": " ہی ",
  "432": "کا ",
  "433": "پوچھ",
  "434": "لوگ",
  "435": "کے ",
  "436": "یں گ",
  "437": " کوئی ",
  "438": "یں ک",
  "439": "چھوٹ",
  "440": "بات",
  "441": "دل",
  "442": " ہو گ",
  "443": "ہوں ",
  "444": "سمجھ",
  "445": "تو",
  "446": "سب ",
  "447": "انھ",
  "448": "نے کی ",
  "449": "لیکن",
  "450": "پاس ",
  "451": "سوچ",
  "452": "را ",
  "453": " گیا۔ ",
  "454": " بچ",
  "455": "ی اور ",
  "456": "اند",
  "457": "ارا ",
  "458": "ان کے ",
  "459": " مجھ",
  "460": "تھا کہ ",
  "461": " خ",
  "462": " بہ",
  "463": " نہیں ",
  "464": "آن",
  "465": "ے کے ",
  "466": "ا ک",
  "467": "نگل",
  "468": "دو",
  "469": "اچھ",
  "470": "مر",
  "471": "جہ ",
  "472": "تا ہے۔ ",
  "473": "ائے ",
  "474": "من",
  "475": "ے اور ",
  "476": "ا:”",
  "477": "جا ",
  "478": "واز",
  "479": "سل",
  "480": "ائی",
  "481": "پہنچ",
  "482": "اص",
  "483": "تے ہیں۔ ",
  "484": "نہیں",
  "485": "رہا تھا۔ ",
  "486": "یا کہ ",
  "487": "انا ",
  "488": " اب ",
  "489": "ے کی ",
  "490": " ر",
  "491": "نے وال",
  "492": "انک",
  "493": "بل",
  "494": "ایک ",
  "495": "ہم ",
  "496": "....",
  "497": "یا تھا۔ ",
  "498": "بہت",
  "499": "جس",
  "500": "نظر ",
  "501": "نے کا ",
  "502": "ی کا ",
  "503": "ہوں۔ ",
  "504": "دے ",
  "505": "ہے",
  "506": "گز",
  "507": "ان کی ",
  "508": "ا کر ",
  "509": "اش",
  "510": " جب ",
  "511": "بح",
  "512": "وک",
  "513": "پک",
  "514": "ت سے ",
  "515": "پڑ",
  "516": " ی",
  "517": "یم",
  "518": "نے کے لئے ",
  "519": "مال",
  "520": "یا،",
  "521": "ی کو ",
  "522": "تع",
  "523": " پھر ",
  "524": "لد",
  "525": " لیکن",
  "526": " مجھے ",
  "527": "تا۔ ",
  "528": "وقت ",
  "529": "وجو",
  "530": "ر کے ",
  "531": " اس کے ",
  "532": " اسے ",
  "533": "صاحب",
  "534": "اپس",
  "535": "ے کو ",
  "536": "روز",
  "537": "ے سے ",
  "538": "مز",
  "539": "اٹھ",
  "540": "اگ",
  "541": "اؤں ",
  "542": "دیکھ کر ",
  "543": "ے کر ",
  "544": "آواز",
  "545": "رف",
  "546": "فر",
  "547": "شان",
  "548": "چل",
  "549": "ضر",
  "550": "اس کا ",
  "551": " کھا",
  "552": " بی",
  "553": "؟“ ",
  "554": "تا تھا۔ ",
  "555": "خود",
  "556": "تے تھے۔ ",
  "557": "وئی ",
  "558": "سام",
  "559": "گیا۔ ",
  "560": "کول",
  "561": "لہ",
  "562": "ی کہ ",
  "563": "باد",
  "564": "امی ",
  "565": "ونوں ",
  "566": " اپنے ",
  "567": "جب ",
  "568": "ای",
  "569": "باہر ",
  "570": "مگر ",
  "571": "روع",
  "572": "میرے ",
  "573": "بند",
  "574": "نکل",
  "575": "زیاد",
  "576": "بو",
  "577": "والد",
  "578": "کہ",
  "579": "کی ",
  "580": "وں کا ",
  "581": "صبح",
  "582": "پڑھ",
  "583": "حال",
  "584": "واپس",
  "585": " دوس",
  "586": "نے میں ",
  "587": "شہ",
  "588": " انھ",
  "589": " دیکھ",
  "590": "سر",
  "591": "بار",
  "592": "حیر",
  "593": "ہوئی ",
  "594": "ا د",
  "595": "بن",
  "596": " پہ",
  "597": "زم",
  "598": "جنگل",
  "599": "میری ",
  "600": "قری",
  "601": "چو",
  "602": "صاحب ",
  "603": "اپنا ",
  "604": " کے لئے ",
  "605": "پہلے ",
  "606": "دا",
  "607": "آج",
  "608": "تھا ",
  "609": "پری",
  "610": "جی",
  "611": "اڑ",
  "612": "ٹی ",
  "613": "گی ",
  "614": "وجہ ",
  "615": "مک",
  "616": "ہے کہ ",
  "617": " جا",
  "618": "آنکھ",
  "619": "جائے ",
  "620": " آپ",
  "621": "زیادہ ",
  "622": "وجود",
  "623": "سر ",
  "624": " کر کے ",
  "625": " مگر ",
  "626": "دیر ",
  "627": " اب",
  "628": "دو ",
  "629": "رک",
  "630": "نکال",
  "631": " اس کی ",
  "632": "جائ",
  "633": "نے کہا:”",
  "634": "بال",
  "635": "ادی ",
  "636": "تھیں۔ ",
  "637": "آگ",
  "638": "ڈال",
  "639": "ہر",
  "640": "ہیں،",
  "641": "وری ",
  "642": "چڑ",
  "643": "شروع",
  "644": "جب",
  "645": "ے میں ",
  "646": " کسی ",
  "647": " لو",
  "648": "ت میں ",
  "649": " کے ساتھ",
  "650": "جگ",
  "651": "یچ",
  "652": "شاہ ",
  "653": "عل",
  "654": " کی طرف",
  "655": "چھوڑ",
  "656": "جلد",
  "657": "آ گ",
  "658": "ورت ",
  "659": "ونکہ ",
  "660": "نے کہ",
  "661": "بان",
  "662": "بتا",
  "663": "دوست",
  "664": "وہاں ",
  "665": "رہے تھے۔ ",
  "666": " نہ ",
  "667": "انہ ",
  "668": "گھر",
  "669": "یا تو ",
  "670": "نے سے ",
  "671": "انت",
  "672": "ڑک",
  "673": " تو ",
  "674": "نے لگا۔ ",
  "675": " ال",
  "676": "یں گے۔ ",
  "677": "ہے اور ",
  "678": "انگ",
  "679": "وں پر ",
  "680": "سن کر ",
  "681": "چانک",
  "682": "بی ",
  "683": " اح",
  "684": "یال",
  "685": " کرنا ",
  "686": "تمہیں ",
  "687": "بد",
  "688": "دار ",
  "689": "خص",
  "690": "ابو ",
  "691": "مار",
  "692": "ورا ",
  "693": "ے کا ",
  "694": " رکھ",
  "695": " ایک دن",
  "696": "مت",
  "697": "فی",
  "698": " لگ",
  "699": "رہ ",
  "700": "انھیں ",
  "701": " رہا ",
  "702": "ایک ب",
  "703": " ات",
  "704": "یسا ",
  "705": "ہیں",
  "706": " ح",
  "707": "پریشان",
  "708": "نس",
  "709": " کرتا ",
  "710": "رواز",
  "711": "پانی ",
  "712": "بار ",
  "713": "آئ",
  "714": "ڈھ",
  "715": "سی",
  "716": "ٹھیک",
  "717": " رہی ",
  "718": "ٹر ",
  "719": "خت ",
  "720": " تھا۔ ",
  "721": " دی",
  "722": "یہ ک",
  "723": "بڑھ",
  "724": "ا تھا۔ ",
  "725": "تی ہے۔ ",
  "726": "تھے،",
  "727": "چیز",
  "728": "وقت",
  "729": "شر",
  "730": " سو",
  "731": " کرتے ",
  "732": "رگ",
  "733": "نو",
  "734": "بر ",
  "735": "م نے ",
  "736": "رات",
  "737": " کرو",
  "738": "بچے ",
  "739": "اسکول",
  "740": " بہت ",
  "741": " کر ل",
  "742": "مر ",
  "743": "مند",
  "744": "غل",
  "745": " اچھ",
  "746": "وہ ک",
  "747": "کی",
  "748": "لے کر ",
  "749": "وجہ سے ",
  "750": "زمین",
  "751": "خوب",
  "752": "مدد",
  "753": "ہو۔ ",
  "754": "خیال",
  "755": "یار ",
  "756": "دونوں ",
  "757": "افی ",
  "758": "تھی،",
  "759": "قص",
  "760": "میں",
  "761": "پرند",
  "762": " مل",
  "763": " اٹھ",
  "764": "“۔ ",
  "765": "یں اور ",
  "766": "اہ ",
  "767": "انسان",
  "768": "اور ک",
  "769": "بڑی ",
  "770": "کان",
  "771": "طو",
  "772": "میں نے ",
  "773": "بس",
  "774": "کر",
  "775": " میں نے ",
  "776": "تہ ",
  "777": " میرے ",
  "778": "پن",
  "779": "ات ",
  "780": "نے لگے۔ ",
  "781": "زند",
  "782": "تے۔ ",
  "783": "او",
  "784": "ہی",
  "785": "ہاں",
  "786": "آئے ",
  "787": "سو ",
  "788": "خر ",
  "789": "لف",
  "790": "ٹک",
  "791": "ا! ",
  "792": " سک",
  "793": "تین",
  "794": "اللہ ",
  "795": "قد",
  "796": "مرے ",
  "797": "تھا اور ",
  "798": " کا",
  "799": "الی ",
  "800": "گی۔ ",
  "801": "آد",
  "802": "تی",
  "803": " جس",
  "804": " انھوں نے ",
  "805": " آج",
  "806": "نے کے بعد",
  "807": "تمہارے ",
  "808": "سامنے ",
  "809": " احمد",
  "810": " کام",
  "811": "اس سے ",
  "812": "چاہی",
  "813": "پیچھ",
  "814": "جن",
  "815": "رق",
  "816": "ا جان",
  "817": " اگر ",
  "818": "غص",
  "819": "گئے ",
  "820": "ے تو ",
  "821": "موجود",
  "822": "جی ",
  "823": "گھر میں ",
  "824": "درخت",
  "825": "روپ",
  "826": "زاد",
  "827": " گئی۔ ",
  "828": "چھوٹے ",
  "829": " جو ",
  "830": "سال",
  "831": "صرف",
  "832": "اس ب",
  "833": "منہ ",
  "834": "بھی ک",
  "835": "چی",
  "836": "لاش",
  "837": "اسی ",
  "838": "صل",
  "839": "غلط",
  "840": "سا ",
  "841": "بڑے ",
  "842": " کی ک",
  "843": "یا ہے۔ ",
  "844": "بھاگ",
  "845": "جگہ ",
  "846": "ماں ",
  "847": " کیا۔ ",
  "848": " کر سک",
  "849": "یق",
  "850": "نیچ",
  "851": "معلو",
  "852": " ہے۔ ",
  "853": "مسک",
  "854": "دیا۔ ",
  "855": " رہ",
  "856": "دور ",
  "857": "میرا ",
  "858": "شیر",
  "859": " مح",
  "860": " اپنی ",
  "861": " بن",
  "862": "تے ہی ",
  "863": "تو وہ ",
  "864": "حیران",
  "865": "دور",
  "866": " پھ",
  "867": "بھائی ",
  "868": " باد",
  "869": "رح",
  "870": "فت",
  "871": "تمہاری ",
  "872": " جب",
  "873": "اں ",
  "874": "چلا ",
  "875": "جواب ",
  "876": "ان سے ",
  "877": " پر",
  "878": " گئے۔ ",
  "879": "میں ک",
  "880": "طوط",
  "881": "سند",
  "882": "دہ ",
  "883": "سائ",
  "884": "وں گا۔ ",
  "885": "پان",
  "886": "و نے ",
  "887": "بہ ",
  "888": "چا",
  "889": " گھ",
  "890": " اسی ",
  "891": "آیا۔ ",
  "892": "صح",
  "893": "بنا",
  "894": " کیوں ",
  "895": "دکھ",
  "896": "ہمارے ",
  "897": "ادھر ",
  "898": "تے ہیں ",
  "899": "رنگ",
  "900": "یہاں ",
  "901": " کھول",
  "902": "تھی ",
  "903": "شہ ",
  "904": "جیسے ",
  "905": " کس",
  "906": "جاؤ",
  "907": "اندر ",
  "908": "درواز",
  "909": "بولا:”",
  "910": "آگے ",
  "911": "گا",
  "912": " میں",
  "913": " لوگ",
  "914": "سوس",
  "915": "ہوں نے ",
  "916": "ہمیں ",
  "917": " ق",
  "918": "روش",
  "919": "یاں",
  "920": "ان کو ",
  "921": "نے پر ",
  "922": "انھوں نے ",
  "923": "ان کا ",
  "924": "لکھ",
  "925": "داخ",
  "926": "ی! ",
  "927": "مو",
  "928": "اگر ",
  "929": "نام ",
  "930": "خوبص",
  "931": " پہنچ",
  "932": "تا ہے ",
  "933": " ایک ",
  "934": "تھی کہ ",
  "935": "وشش",
  "936": "پوچھا۔ ",
  "937": " سب",
  "938": "زور ",
  "939": "تلاش",
  "940": "وڑی ",
  "941": "قریب ",
  "942": " بڑھ",
  "943": "ہد",
  "944": "ستہ ",
  "945": "تمام ",
  "946": "خوشی ",
  "947": " سن",
  "948": "گئے۔ ",
  "949": "زین",
  "950": ".....",
  "951": "ڈر",
  "952": "نھ",
  "953": " ہم",
  "954": "دی ",
  "955": " ای",
  "956": "صی",
  "957": "شخص",
  "958": "پکڑ",
  "959": "مالک",
  "960": " کھیل",
  "961": " تھے۔ ",
  "962": " اس لئے ",
  "963": "اج",
  "964": "تیز",
  "965": "ے پر ",
  "966": " سب ",
  "967": "ی کر",
  "968": "یہ",
  "969": "اؤں",
  "970": "اط",
  "971": "و! ",
  "972": " میری ",
  "973": "چھپ",
  "974": "ئیں۔ ",
  "975": "داد",
  "976": "قل",
  "977": "مرے میں ",
  "978": " رہا تھا۔ ",
  "979": "فورا ",
  "980": " کے پاس ",
  "981": "یا کر",
  "982": " چل",
  "983": "ہوں،",
  "984": "یوں ",
  "985": "ورت",
  "986": "نڈ",
  "987": "کر ",
  "988": "ا ل",
  "989": " در",
  "990": " ہم ",
  "991": "اکہ ",
  "992": "تح",
  "993": " صبح",
  "994": "ثر ",
  "995": "مسکرا",
  "996": "ہو گیا۔ ",
  "997": "پتا ",
  "998": "راس",
  "999": "نے کی ک"
}